[PAD]
[UNK]
[CLS]
[SEP]
[MASK]
!
"
#
$
%
&
'
(
)
*
+
,
-
.
/
0
1
2
3
4
5
6
7
8
9
:
;
<
=
>
?
@
[
\
]
^
_
`
a
b
c
d
e
f
g
h
i
j
k
l
m
n
o
p
q
r
s
t
u
v
w
x
y
z
{
|
}
~
¡
¢
£
¤
¥
¦
§
¨
©
ª
«
¬
®
¯
°
±
²
³
´
µ
¶
·
¸
¹
º
»
¼
½
¾
¿
×
ß
æ
ð
÷
ø
þ
đ
ħ
ı
ĸ
ł
ŋ
œ
ŧ
ƒ
ƙ
ƚ
ƛ
ƞ
ƭ
ƴ
ǀ
ǁ
ǂ
ǝ
ȷ
ɑ
ɔ
ɕ
ə
ɛ
ɡ
ɣ
ɤ
ɨ
ɩ
ɪ
ɲ
ɳ
ɵ
ɷ
ɸ
ɹ
ʃ
ʈ
ʊ
ʋ
ʌ
ʎ
ʒ
ʟ
ʰ
ʹ
ʺ
ʻ
ʼ
˂
˃
˄
ˆ
ˇ
ˈ
ˉ
ˊ
ː
˗
˘
˙
˚
˜
˝
΄
α
β
γ
δ
ε
ζ
η
θ
ι
κ
λ
μ
ν
ξ
ο
π
ρ
ς
σ
τ
υ
φ
χ
ψ
ω
ϑ
ϒ
ϕ
ϖ
ϯ
ϰ
ϱ
ϵ
а
б
в
г
д
е
ж
з
и
к
л
м
н
о
п
р
с
т
у
ф
х
ч
ш
ы
ь
я
є
і
ћ
ѱ
ѳ
ѵ
қ
ҡ
ө
ԑ
՛
׀
׳
،
ا
ب
ت
د
ر
س
ع
ـ
ف
ك
ل
م
ن
ه
و
ي
٭
ܐ
ܘ
ก
า
ᄀ
ᄅ
ᄉ
ᄋ
ᄌ
ᄑ
ᄒ
ᅟ
ᅡ
ᅩ
ᅮ
ᅰ
ᅳ
ᅵ
ᆨ
ᆫ
ᆯ
ᆷ
ᆼ
ᴅ
ᵇ
ᵒ
‐
‑
‒
–
—
―
‖
‘
’
‚
‛
“
”
„
‟
†
‡
•
․
‥
…
‧
‰
′
″
‴
‵
‶
‹
›
※
‾
⁁
⁃
⁄
⁎
⁑
⁓
⁰
⁹
⁺
⁻
₀
₁
₂
₃
₄
ₒ
₤
₦
€
₹
ℂ
℃
ℋ
ℍ
ℏ
ℐ
ℑ
ℒ
ℓ
ℕ
№
℘
ℙ
ℚ
ℛ
ℜ
ℝ
™
ℤ
ℬ
ℰ
ℱ
ℳ
ℵ
ℶ
ℸ
ⅆ
⅓
⅔
⅛
ⅰ
ⅱ
ⅲ
ⅳ
ⅴ
ⅹ
←
↑
→
↓
↔
↕
↗
↘
↦
↪
⇀
⇄
⇆
⇉
⇋
⇌
⇐
⇑
⇒
⇓
⇔
⇝
⇧
⇩
∀
∂
∃
∅
∆
∇
∈
∊
∋
∎
∏
∑
−
∓
∕
∖
∗
∘
∙
√
∝
∞
∠
∢
∣
∥
∧
∨
∩
∪
∫
∬
∭
∮
∴
∶
∷
∼
∽
≃
≅
≈
≍
≐
≒
≔
≙
≜
≡
≤
≥
≦
≧
≪
≫
≲
≳
≺
≻
≼
≽
⊂
⊃
⊆
⊇
⊑
⊓
⊔
⊕
⊖
⊗
⊘
⊙
⊚
⊛
⊝
⊠
⊢
⊣
⊤
⊥
⊧
⊨
⊩
⊳
⊺
⊿
⋀
⋁
⋂
⋃
⋄
⋅
⋆
⋇
⋊
⋮
⋯
⋱
⌀
⌈
⌉
⌊
⌋
⌝
⌢
⌣
⍺
⎕
⎼
⏜
⏞
⏟
①
②
③
④
⑤
⑥
⑦
⑧
⑨
⑩
ⓐ
ⓒ
ⓡ
─
│
┤
┬
┴
┼
═
║
╳
█
░
■
□
▪
▫
▬
▲
△
▴
▵
▶
▷
▸
▹
►
▼
▽
▾
▿
◂
◆
◇
◉
◊
○
◎
●
◘
◦
◯
◻
◼
◾
★
☆
☐
☑
☒
☓
☨
☹
☺
☼
☿
♀
♂
♠
♢
♣
♦
♭
♯
⚪
⚫
⚬
✓
✔
✕
✖
✗
✘
✝
✩
✰
✳
✵
✹
❍
❑
❖
❶
➀
➁
➂
➃
➔
➜
➢
➣
⟦
⟧
⟨
⟩
⟵
⟶
⟷
⟹
⟺
⟼
⦀
⦁
⧫
⨁
⨂
⨯
⩒
⩽
⩾
⪯
⪰
⬆
⬇
⬛
⬜
ⱡ
⿿
、
。
〇
〈
〉
》
【
】
〚
〛
〜
い
か
く
し
す
た
て
と
な
に
の
る
・
ー
一
上
下
不
与
个
中
临
为
主
了
于
人
以
会
伤
但
位
体
作
例
入
全
公
关
其
内
出
分
切
别
到
制
前
力
动
化
北
医
华
南
原
县
及
发
受
变
可
叶
号
合
同
后
周
和
因
国
图
在
地
均
型
基
增
声
复
外
多
大
天
头
如
子
存
学
安
定
实
家
对
导
小
展
山
差
巴
常
平
年
并
床
应
度
异
形
影
征
得
微
心
志
性
恶
患
感
成
我
或
所
手
技
抗
报
提
支
效
数
文
断
新
方
无
日
时
明
是
显
月
有
期
未
本
术
机
李
来
林
果
染
查
标
样
检
此
毒
比
气
水
江
沉
治
法
活
流
测
海
液
淋
清
灶
炎
然
片
版
物
特
状
猴
率
现
理
生
用
甲
疗
疫
病
症
瘤
癌
白
的
皮
目
相
研
确
示
种
科
积
移
程
究
突
等
管
类
系
素
组
细
织
经
结
统
者
而
耐
肝
肺
肿
胞
胸
能
脑
腔
腺
膜
自
色
节
花
草
药
血
行
表
西
要
见
计
诊
质
超
转
较
达
过
进
选
通
道
部
采
重
量
金
镜
长
间
阳
院
除
非
预
验
高
黄
ꞌ
ﬀ
ﬁ
ﬂ
ﬄ
︷
︸
％
＇
（
）
＋
，
－
：
；
＜
＞
～
･
𝐫
𝐱
𝑆
𝑇
𝑎
𝑏
𝒜
𝒞
𝒟
𝒢
𝒦
𝒩
𝒪
𝒫
𝒬
𝒮
𝒯
𝒰
𝒱
𝒲
𝒳
𝒴
𝓐
𝓗
𝓛
𝓜
𝓝
𝓡
𝓢
𝓣
𝔸
𝔹
𝔻
𝔼
𝔽
𝔾
𝕀
𝕃
𝕄
𝕊
𝕋
𝕌
𝕍
𝕏
𝛌
𝛻
𝛼
𝛽
𝛾
𝜀
𝜃
𝜇
𝜖
𝜗
𝟙
##l
##1
##0
##8
##3
##r
##o
##m
##e
##t
##a
##p
##h
##s
##6
##y
##7
##9
##2
##5
##θ
##i
##j
##b
##n
##k
##z
##v
##4
##g
##c
##н
##d
##u
##f
##−
##γ
##x
##×
##ν
##±
##®
##β
##¨
##˙
##q
##w
##ł
##у
##μ
##ϵ
##σ
##¯
##≈
##△
##™
##ϕ
##η
##α
##∂
##∪
##π
##∼
##→
##°
##ϖ
##⟶
##∈
##⟹
##χ
##≤
##δ
##ω
##∩
##λ
##φ
##∞
##∑
##´
##ρ
##ˇ
##∫
##ℓ
##∗
##с
##⋅
##κ
##⋯
##⋮
##⋱
##²
##˜
##ℂ
##º
##●
##⊤
##≥
##∥
##≡
##τ
##⊕
##€
##∶
##⊗
##ℏ
##∇
##∀
##ε
##ø
##ξ
##∣
##∕
##ι
##│
##¥
##∝
##ℑ
##ℰ
##∙
##ϱ
##ζ
##≃
##˘
##ɸ
##ħ
##ß
##ℵ
##≅
##ı
##↑
##⩽
##∆
##↓
##≫
##⏟
##ʹ
##ℝ
##ψ
##˝
##υ
##≒
##≲
##♂
##ˉ
##∅
##¢
##ʼ
##г
##д
##∘
##µ
##∏
##⟷
##∧
##√
##а
##о
##ш
##∋
##æ
##р
##и
##▪
##□
##ℒ
##⊂
##℃
##↔
##ʺ
##ɨ
##←
##ℱ
##ˆ
##ⅱ
##˚
##⋃
##ǂ
##◦
##①
##ɑ
##○
##£
##ϑ
##↪
##𝛼
##⇝
##✳
##⇀
##ﬂ
##≺
##⟺
##➔
##ª
##⊥
##♦
##⇄
##≜
##𝜗
##ℙ
##≻
##ѱ
##©
##≪
##ˈ
##₂
##₄
##⇌
##⪰
##⟵
##≦
##ℜ
##ф
##⊖
##⏞
##⊆
##⊙
##∓
##▲
##↦
##ⓡ
##½
##♀
##ɪ
##𝔼
##∨
##∭
##▵
##∬
##⁄
##ϰ
##≧
##ɛ
##ﬁ
##∖
##÷
##⇔
##═
##⇒
##þ
##★
##⋆
##΄
##ŧ
##⋂
##ː
##↗
##≔
##⌢
##─
##ο
##⑧
##➁
##➂
##ς
##⩾
##∷
##𝓗
##ℤ
##▴
##∠
##¬
##ə
##ʊ
##⋄
##⿿
##い
##𝒩
##⁻
##м
##л
##я
##⊧
##⊑
##▸
##ð
##░
##¸
##■
##¦
##е
##＋
##③
##⑥
##⑦
##ℛ
##∊
##②
##⑤
##≐
##♣
##ϒ
##ℕ
##𝒫
##ɤ
##║
##ĸ
##☆
##𝛌
##▽
##з
##⊃
##³
##ل
##ن
##ب
##ي
##⋊
##➜
##⁰
##⪯
##～
##⋀
##ℬ
##ﬄ
##∴
##⋇
##≍
##ˊ
##⁺
##⊢
##♯
##ℋ
##ʌ
##ʻ
##ꞌ
##¹
##∮
##∃
##˗
##◊
##ر
##ا
##⨂
##┴
##х
##𝜃
##⊠
##ȷ
##⑨
##ⅲ
##⊩
##＞
##≙
##ℳ
##¤
##ᅟ
##і
##≳
##ǝ
##ǀ
##☼
##⊿
##④
##⌣
##┬
##𝜖
##¼
##𝒜
##ه
##ч
##к
##⊇
##↕
##ⅹ
##𝕍
##⊺
##𝒯
##⋁
##ܘ
##ܐ
##ƒ
##و
##⇓
##⟼
##ت
##ع
##𝒞
##ℐ
##𝒮
##б
##œ
##⊨
##ʒ
##𝒪
##ɔ
##♠
##►
##ѳ
##ь
##ʰ
##ⅰ
##п
##т
##˃
##ǁ
##¾
##ɣ
##𝓛
##𝔾
##⇐
##⎕
##な
##か
##と
##く
##є
##𝕄
##の
##в
##ы
##ɕ
##𝑆
##℘
##𝕋
##₃
##⇋
##▫
##ᄌ
##ᅵ
##ᅩ
##ᆨ
##ᄀ
##ᅡ
##ᆷ
##⊔
##𝒟
##ћ
##⏜
##₤
##♭
##ŋ
##∽
##ー
##て
##▼
##⊣
##م
##ϯ
##✖
##đ
##⊛
##⦀
##˄
##⇆
##ᄅ
##ᅳ
##ᆫ
##𝔹
##た
##⊝
##╳
##⨯
##ʋ
##𝜀
##❖
##ᄑ
##る
##に
##✕
##ℚ
##▾
##د
##≼
##ƛ
##า
##ก
##ԑ
##⇉
##⍺
##▿
##ʃ
##⑩
##⨁
##ᵒ
##◆
##┼
##ж
##ⱡ
##𝑇
##𝒢
##＜
##し
##す
##𝒰
##ѵ
##𝒲
##𝛾
##˂
##✝
##➀
##ɲ
##☨
##ᆼ
##ᄉ
##≽
##ƴ
##ⓐ
##ⅳ
##ﬀ
##س
##⬛
##⬜
##𝕀
##┤
##➢
##𝛻
##ө
##ɡ
##ك
##ɳ
##◇
##☐
##ℸ
##✓
##𝒱
##𝑏
##𝟙
##ʎ
##𝒬
##ɷ
##↘
##⎼
##₁
##⊓
##ⅆ
##◯
##𝕊
##♢
##қ
##ℍ
##⇑
##ᅮ
##ᄒ
##ƭ
##∢
##ف
##⊳
##❶
##𝓐
##𝜇
##⊘
##✔
##ʈ
##𝒳
##☓
##𝒦
##𝑎
##ᅰ
##◂
##ᆯ
##ᄋ
##ɵ
##∎
##₀
##ɩ
##▹
##⧫
##ℶ
##▬
##⁹
##⌀
##⌝
##⅓
##☺
##ـ
##𝕏
##ƞ
##𝓜
##𝓝
##𝔽
##✰
##𝔻
##ҡ
##⚬
##𝔸
##𝐫
##☿
##ʟ
##𝓣
##◎
##⦁
##◉
##𝛽
##ᵇ
##▶
##ɹ
##ƚ
##ƙ
##ₒ
##◼
##𝕃
##⚫
##⅔
##⇩
##ⅴ
##〇
##𝕌
##₦
##№
##✩
##ⓒ
##⅛
##☹
##✗
##➃
##✹
##⇧
##❍
##⬆
##⬇
##𝓡
##𝒴
##✵
##⚪
##◻
##☒
##⊚
##◘
##▷
##𝐱
##𝓢
##₹
##er
th
##ti
##on
##en
##es
##ed
the
##in
##al
in
##or
an
##at
of
##an
##tion
and
##ar
##ro
##as
##it
##ic
##re
##is
##ent
##el
##ec
##ing
to
##ation
##ol
##et
##om
##ac
##ul
##ur
##le
##os
##ig
st
##us
##id
##ith
##ere
for
##ly
##th
##ve
re
with
con
as
pro
##ter
##ati
al
##il
##am
##uc
is
##ow
##em
##ce
##im
##ts
ex
was
##od
were
##um
##un
##ess
##if
##ab
on
##ir
##tr
##ated
##ut
##tic
##oc
##ag
be
##ity
##ud
##ver
##ot
##ys
##ell
##ain
res
us
wh
ac
com
##ion
ch
##op
or
20
by
##ate
##ted
##ad
that
##og
##ment
##ure
##rom
at
##pl
##ap
are
de
##ical
##ri
##ng
##ers
from
su
##qu
dis
sp
##igh
tr
se
cell
inc
##ant
pr
ad
##ents
im
##ies
##vel
10
##ch
gen
we
##ib
sh
##for
stud
##fer
##iz
##ence
un
##ine
##ase
comp
##ay
en
exp
##te
co
le
this
##iv
##ous
per
##pp
ne
##ff
ind
##ans
par
##ress
##iti
##ens
##ip
##and
##ial
##ign
ph
##ge
##able
##yp
##ations
##ition
##enti
pati
rec
##ich
cl
pre
ass
met
ha
##ia
can
et
##ect
##bs
pl
fig
##por
##ther
##ting
##rou
he
##ific
di
inter
##form
cons
##00
201
dif
##ach
##ary
##act
cont
all
anal
sc
me
##duc
##ore
##und
##ph
##olog
##enc
##ear
not
which
have
int
##oll
cells
##ual
##vi
##ection
##ance
dat
##st
##ors
str
trans
##ons
using
##age
##est
patients
##erm
study
differ
##ard
##ost
rel
##ased
mod
##ue
spec
##etw
##der
reg
##tiv
am
##ular
high
##ari
##ese
inf
sign
it
##na
sam
##ast
##ath
used
ab
19
##ist
eff
ev
show
##ative
##ong
##ak
##all
resp
##end
##ep
##our
tre
analys
##ected
##ome
these
##lud
data
been
det
##een
200
##ater
##ved
12
##roup
##ory
##etween
between
##ied
##tive
has
af
##ight
##ates
med
##ub
##ug
##ding
##ym
##ally
group
##yst
sur
ar
##so
acc
resul
mic
tw
##ression
meth
car
app
bi
no
##rol
prote
##ose
##ill
##ple
##ide
des
##yl
##dition
##per
##oth
includ
11
also
bl
##tions
ag
anti
pres
##ound
15
tim
vari
cor
suc
pos
##ass
protein
after
inv
two
##ang
##one
13
analysis
##cri
figure
##ility
fl
there
##ber
##ely
##oci
##ues
##unc
activ
level
their
incre
##ases
##ized
##ood
##tin
##ros
##tim
##pt
el
##ech
##acter
more
##ew
##alth
each
##ulation
man
##iss
method
val
##ree
partic
one
##ating
##ive
id
##ystem
min
compar
control
##ond
health
repor
ins
other
14
##yn
##cer
##ution
cr
##tal
treat
##ct
##res
proc
signific
foll
##ures
sub
##aus
meas
##tain
##ants
##ects
how
studies
perform
such
num
##ob
model
system
16
##mun
follow
treatment
##vers
ap
than
em
rep
ob
es
##ail
based
##ox
dur
year
dise
##ined
##velop
time
over
18
out
##cl
gene
ser
##uld
##als
##vely
##out
##ms
##entr
li
typ
associ
##ack
##ult
develop
exper
appro
##ile
low
significant
##ace
gr
results
##ork
##cc
##entif
mon
different
imp
##ish
fact
##uct
##ite
##ays
dec
dep
##anc
red
gl
expression
table
func
##ological
00
25
17
so
into
##ogen
clin
sim
supp
##br
br
##ever
##plic
cy
both
dr
form
##row
produc
##ences
fr
but
##agn
may
##atic
30
##orm
during
ma
gener
##tical
sm
##gg
under
##av
##ature
##ix
##gr
char
##ium
def
##gen
non
##osis
sel
sequ
24
identif
most
number
however
mm
prov
pol
##aph
up
sampl
hum
##arg
path
##ization
col
##les
well
obs
respons
##her
##ale
##ently
##fore
##urr
##gh
po
##ps
fir
##action
function
##trib
addition
loc
process
only
use
coll
##itive
present
##ild
disease
##ord
##ort
its
fin
##atory
clinical
sol
cancer
cal
##ange
exam
rem
##ivid
subs
##ption
##ments
had
21
##ven
first
performed
##own
##par
##aining
##ology
struct
mul
end
##rough
##ici
particip
kn
##ities
##ions
##vious
##ov
three
##tern
comm
age
qu
sec
obser
character
pop
conc
our
##til
they
##ability
##ole
reported
descri
##cr
ml
hyp
##ane
years
##ective
indic
prim
##ential
22
ris
inform
##ark
experim
##hib
##port
when
tum
##yd
cd
infl
shown
specific
##ize
through
fe
mo
##ric
##ft
associated
previous
##tit
reduc
determ
immun
##eng
syn
##ulated
##ugh
##earch
##ines
found
##ogr
research
total
where
##are
test
##ured
fur
assess
including
50
##ecti
samples
levels
##ider
23
##tics
##ible
##ause
##ency
##ages
##amm
##bed
methods
op
##ian
##ten
##ited
dem
mol
100
risk
##ok
human
then
induc
bec
patient
##ination
pot
obtain
further
tem
condition
##roduc
micro
##eter
activity
##ividual
tiss
##ement
##view
##ational
individual
mem
##ains
main
##atis
set
il
##oid
ep
compared
##erg
genes
grow
##its
##fl
diagn
extr
import
pe
##ds
mater
consider
mean
##ormal
##ma
do
##ectively
##ke
##esis
##lex
tes
##ural
##ock
##ough
sens
##ental
multi
concentr
##osed
prob
within
##10
av
pred
term
type
if
##ording
##echn
calc
##rop
some
acid
##anis
coun
##ograph
org
##ital
##tig
##alu
work
##led
##oun
groups
##iter
##xim
effect
evalu
26
##ery
related
disc
mut
##idence
##ha
##ex
corre
##ute
##ould
among
sever
tri
##adi
mor
molec
##over
28
repres
stand
blood
##oph
inhib
##inal
who
dna
vir
phys
factors
while
species
mg
occ
##ody
##ilar
##lement
##air
effects
##och
due
##ek
care
##iel
05
new
##onic
information
27
techn
infection
bas
conf
##ade
second
statis
##ified
prot
increased
mech
development
40
similar
##otyp
according
class
antib
mice
obtained
##art
199
##ucle
material
##ice
##ene
cap
01
introduc
##int
following
##ne
vis
##val
fre
observed
##omes
29
higher
population
could
lab
##ily
sample
important
invol
child
sch
ps
inves
requ
standard
##ie
rate
aff
respectively
lim
investig
measure
gre
##ateg
cases
normal
showed
dire
##equ
cult
##arge
ox
del
chang
##usion
##ness
##af
ther
sugg
##arget
anim
participants
response
##vir
##ores
##cs
described
##ubl
##ross
line
therap
##ived
target
intr
mat
er
##iqu
chem
##ise
##ics
000
ro
##ire
cyt
##osph
sl
##round
##ink
post
long
will
positive
neu
those
37
##ether
exc
analy
bin
##osp
tumor
##roph
##ocy
included
##ication
##old
abs
##12
##ately
##onstr
proteins
##ength
##ning
subj
##uth
estim
##ves
flu
provid
same
##ically
ii
prom
ext
ol
##de
35
sing
equ
water
hist
##ins
curr
##endent
##cle
mal
therefore
##ained
drug
frequ
month
several
32
##other
about
impro
##cop
ca
review
characteris
sym
initi
##oma
lead
complex
values
temper
value
bre
##ake
peri
conditions
case
publ
##11
common
refer
33
week
small
predic
##ites
##etic
vol
identified
growth
##nal
neg
because
transcri
eth
ear
tissue
##plet
day
surf
##ren
pur
four
many
##ick
##med
usa
approach
potential
plas
mus
31
poss
hyd
range
signal
inj
days
##viron
any
thus
##etr
qual
##ept
95
distrib
##omen
##20
param
conduc
express
nm
cm
##aw
size
design
hosp
single
significantly
##ification
isol
##urs
60
nucle
avail
comb
ir
##ung
gu
role
##ield
mechanis
##oh
##ptom
mark
surg
lif
dom
add
##asc
beha
structure
period
primary
pat
my
measured
##ful
##abol
analyz
##tt
changes
fam
##lation
vi
behavi
introduction
##°c
environ
represent
decre
without
outc
mir
36
need
##vention
##ator
##ogn
ec
supplement
maj
prog
##ae
##uf
##ished
34
##io
quan
pers
major
lower
increase
##omic
demonstr
##ensity
##ving
ms
region
lo
sin
before
expl
##ties
considered
stat
rele
sk
adm
temperature
fem
resist
ques
##onal
metabol
und
bacter
large
stim
caus
sugges
##ival
pathw
##tif
##ouse
surface
##cin
previously
45
phen
order
##uted
prop
##ax
pcr
##ardi
known
fil
##ables
os
##versity
treated
cent
aut
inflamm
rna
##ectr
giv
##erc
##itor
##ired
alth
although
induced
##ension
medical
cle
##eters
local
radi
48
fib
hospital
##ty
factor
##gf
diff
cat
characteristics
fac
##verage
section
commun
phosph
##cent
contr
##ety
ret
available
##arm
negative
prof
multiple
stress
##oss
##13
##try
children
complet
influ
##ward
##16
##ann
defined
bel
der
pri
38
##rogen
organ
environment
sw
less
##tes
body
sequence
quality
presence
synth
##ission
02
area
recept
##ina
part
##up
differences
##actions
##hip
hel
##red
##az
##uss
##eth
cir
collected
women
again
direct
foc
concentration
life
sus
##ism
##truc
determined
##tered
##vant
rati
##aging
symptom
vers
brain
membr
proper
months
rand
##ually
models
##verse
mr
mix
proced
phase
pattern
back
rece
ref
001
##tis
molecular
materials
allow
various
##ind
##ior
##arch
random
centr
being
surv
prepar
nan
##ening
analyses
sal
##ove
weight
##ull
flow
binding
##ets
##etwork
##ulations
sci
statistical
genetic
−0
hem
39
##omy
##abl
ct
incub
##ither
°c
network
like
progr
containing
given
##ust
calculated
ed
mass
did
80
evidence
##plied
since
##14
electr
general
ke
##ules
##xt
##acy
cardi
diagnosis
uni
elect
##ca
particular
serum
##50
unders
03
would
conducted
parameters
current
##ns
genome
tak
free
##zym
compon
##icient
bar
extrac
ang
individuals
indep
solution
soft
criter
early
2013
see
virus
est
##asing
2012
##oles
42
wor
##ands
underst
contrib
##acc
compound
##olution
functional
recent
tra
regul
applic
chrom
##reg
##ank
sour
length
##ats
whether
record
distribution
contin
2014
##vere
chr
expressed
##ices
scale
pd
##las
##atures
analyzed
##els
lip
##ces
##ised
dist
focus
read
##ascular
resid
therapy
assay
experimental
##15
##ision
adj
death
additional
nec
confir
bio
hyper
result
##app
food
change
reve
##ried
##bers
##ides
her
##ier
developed
sn
##ored
##ters
either
diseases
##ych
against
prac
##ocial
lik
ele
them
70
press
prior
04
##ci
state
scre
##ists
2015
##resp
##ner
43
site
example
##roscop
recom
polym
##bi
##cept
stage
production
2010
go
family
link
te
cod
ill
super
90
##ergy
average
relations
vit
##eration
selected
##ld
variables
2011
finding
score
enzym
ver
least
##tric
ul
enh
position
cre
applied
att
differenti
##ware
medi
subjects
##ru
dim
possible
discuss
surve
##very
identify
44
##ols
step
followed
survival
experiments
involved
prec
very
ur
hom
loss
##ume
##17
##18
##inis
##eric
##nas
sex
##osure
presented
systems
carb
enc
ve
left
separ
criteria
μm
via
orig
comparis
labor
should
gluc
sequences
medium
##aps
##oy
question
diab
##aled
kg
75
resistance
##ended
light
prol
##ount
##pr
ratio
mac
neur
physical
status
oper
ge
activation
animals
improve
field
##ask
strateg
##encing
proble
corresp
protoc
relationship
auth
five
tub
sum
access
reduced
difference
regard
pap
culture
techniqu
provide
##atively
types
##atin
##tegr
detail
social
approxim
##otype
##eline
##he
##fs
experi
demonstrated
bet
refl
46
even
self
symptoms
##ours
point
frequency
cur
cer
##ture
regions
##ymph
energy
down
2016
above
pain
adminis
##osition
##cess
hiv
magn
strong
vs
properties
membrane
transcription
categ
2009
circ
preval
provided
muc
association
establ
know
##ector
university
##uk
often
supplementary
##19
subsequ
right
integr
understand
##ynam
formation
instit
phot
detection
sites
pow
##ino
##ule
dose
germ
software
mit
index
##tide
47
world
bm
increasing
##etes
animal
plant
male
lymph
reaction
performance
mar
detected
sd
##tration
across
liver
lay
weeks
na
times
relative
s1
##emic
men
clus
##ances
##ographic
behavior
aim
##ient
immune
surgery
##ids
exposure
concentrations
2008
49
top
da
##cence
maxim
##odies
dependent
55
lung
psych
##itation
pressure
##yr
##pec
ann
program
ach
##ople
##ensive
gly
short
##ellular
rates
mouse
independent
chronic
hydro
here
spectr
##amp
manag
cross
eng
##dr
people
larg
ax
biological
##ef
medic
##22
##ators
continu
##ially
##cep
hand
##line
nor
##ction
indicated
##utions
bone
nat
determine
##emia
##gn
images
active
minim
transm
block
##tries
serv
overall
##eding
plac
bo
##anced
##vity
nod
##80
reference
cause
mechanisms
##tically
liter
breast
##71
heter
##etric
assessed
##etry
repe
lines
ampl
##otherap
later
##ography
highly
receptor
hypoth
hep
pair
ci
include
inflammatory
recently
percent
derived
areas
mortal
glob
##mon
therm
required
visual
valid
cop
##ibr
##to
wa
##utes
volume
assessment
41
depend
clear
65
##be
cryst
##ogenic
##ints
##30
report
mortality
72
real
density
adv
outcomes
stimul
##−1
##onding
pul
tissues
cycl
pep
shows
##ocytes
datab
##erative
##tid
54
key
##asis
six
responses
coh
signaling
image
collection
made
chemical
optim
##aneous
52
guid
few
pathway
effective
##ta
##ler
female
initial
achie
fat
##ots
public
cs
##more
imaging
##ga
##ulin
56
les
revealed
findings
##inant
##ars
poly
features
domain
2017
biom
##lor
inhibit
##emb
prevalence
##man
national
occurr
appear
##ledge
electro
consist
support
##uffer
53
furthermore
log
##resh
dm
success
china
ic
##ground
transfer
oxid
##read
approximately
dev
##ustr
antibody
tested
search
buffer
##till
##amin
##ancy
processes
limited
##utr
contrast
severe
another
impact
methyl
pa
mill
##ury
mid
dam
strain
rap
secondary
controls
diss
content
##40
fail
##ales
displ
estimated
##itivity
2007
tests
baseline
##hyd
##elial
##ii
correl
obj
diet
fluores
##ploy
added
##vation
history
evaluated
##any
diabetes
jour
##25
knowledge
hr
comparison
diagnos
##ame
accur
neuro
interaction
fix
off
##ibility
plasma
median
microscop
intervention
poor
wid
adap
tox
experiment
glucose
sil
monitor
##iciency
literature
might
still
##itis
##active
##tivity
##igr
morph
background
alg
##ones
recogn
prev
06
lack
##ably
moreover
μl
metast
educ
likely
cellular
laboratory
##sp
##ik
incubated
bir
maintain
##otherapy
resulting
measurements
##go
bp
sem
##enced
dys
bro
proposed
protocol
ren
central
96
##ops
57
deli
quantit
eu
99
exclud
reduction
strains
##put
kin
pan
ability
acute
64
##ochem
complete
call
59
colon
peak
muscle
##icity
prolif
dynam
bene
whereas
isolated
##land
correlation
consum
smok
##23
##eu
acqu
##eed
fish
deg
old
countries
cogn
pc
investigated
##ecting
##rix
arr
carried
58
categor
##ogenesis
full
##tice
management
##hed
sequencing
training
states
amino
structures
act
conn
final
##ings
summ
##ude
propor
healthy
chall
##arr
compounds
populations
outcome
##53
pregn
rh
interactions
##me
##inc
task
decreased
source
benef
received
play
##24
##fficient
2006
##ss
##abil
heart
##omp
67
##medi
air
antibodies
journal
##isted
##aff
cri
198
##iving
power
mutations
##enz
lig
##etal
##iological
emerg
util
diffic
corresponding
confirmed
host
selection
##ems
arter
wr
view
bur
ess
plants
procedure
apop
nit
artic
##tinal
examined
mechanism
infected
kit
##mic
doc
##da
cycle
promo
fit
lear
thir
along
##ulf
quantif
products
##iting
dig
##lying
version
generated
##27
63
center
testing
community
gas
atten
err
components
questionna
evaluation
66
cov
##ou
recorded
survey
lys
studied
imple
whole
rang
##26
##eness
##ogene
mak
hours
##tosis
##rob
##anol
μg
##ument
exhib
den
activities
2005
functions
##ather
##aly
good
trial
##terior
##oplas
star
bacterial
employ
##vement
taken
##ron
consent
tur
mel
load
replic
wild
head
authors
##enting
nutr
greater
rapid
dil
asp
##ising
complic
natural
fer
##orb
epid
better
molecules
substr
matrix
events
drugs
global
rs
1a
recomm
linear
regulation
ta
seg
environmental
##rome
##opath
until
sensitivity
commit
##izing
##isting
pathways
measures
iv
facil
pharm
paper
characterized
vitro
patterns
iii
synthesis
##tor
terms
##28
##ining
approved
suppor
vacc
moder
influence
squ
pp
##21
hy
setting
mrna
##29
trials
rt
last
##uble
##co
interest
invas
##ying
##itu
ns
##agen
##ygen
##iat
##ulate
measurement
dri
2000
database
she
recru
altern
07
51
ga
proj
##ont
adul
intensity
500
85
near
way
incidence
##ason
lat
regression
combination
68
ng
mc
##ool
2018
viv
side
points
maximum
seed
migr
algor
consequ
algorith
##orders
espec
skin
transform
##tle
especially
intern
##kn
##ochond
staining
every
rad
69
conte
layer
##ections
tumors
relevant
soci
synd
injury
plat
his
##oint
##istic
reach
mediated
established
cut
implement
proportion
interes
cost
agg
bacteria
ultr
published
mes
subst
##bp
spect
##ape
sa
frag
htt
diam
##otic
understanding
##orph
scores
graph
caused
##fp
green
suggested
har
##tial
prepared
##ires
stre
continuous
cohort
screening
adult
sig
acet
identification
directly
leading
transf
rats
mitochond
2004
novel
thick
pbs
construc
##of
room
cognitive
##ologies
viral
wes
does
##otypes
##eck
hal
73
plan
origin
ey
disorders
ra
bios
##70
tn
##ney
impair
wide
##se
mitochondri
##order
around
metabolic
##grad
##onomic
##tering
##gt
surgical
mainly
necess
processing
##olic
chromos
capac
germany
##amine
##ger
variable
##ressive
below
plasm
proliferation
interview
76
discussion
jap
finally
means
##tib
bu
wt
##plant
carbon
##ense
essential
specim
amount
##ling
##pri
infections
eas
open
extracted
carcin
home
duration
98
indicate
expected
##unction
bri
scan
desp
##uring
##eutic
though
committe
encod
##ufact
oxygen
##ession
hs
daily
require
color
##pa
manufact
evaluate
vivo
saf
alc
damage
despite
produced
##roc
##operative
excluded
cytok
reduce
ov
appropri
##90
iss
youn
74
##ipp
secre
##34
ner
78
##entially
pm
08
resour
critical
structural
##ote
cere
differentiation
##oses
pass
western
conser
glyc
white
ens
adults
location
polymer
evolution
susp
cho
toward
map
assemb
markers
inst
inhibition
soil
##ele
procedures
stem
77
##overy
cp
upon
don
##otor
decrease
accum
##acts
affected
neurons
respir
much
third
respond
vector
combined
datas
##38
variation
americ
chann
spati
practice
assum
distin
europ
problem
located
h2
specif
##orption
epith
next
usually
pt
absence
oste
help
por
difficult
pi
affect
hc
context
examination
weigh
composition
sampling
distance
1371
able
percentage
application
las
ef
94
84
genomic
japan
concer
regarding
##ams
alcoh
##ra
bal
##omal
tog
fixed
##tine
education
97
hypert
inflammation
progression
##60
detect
93
informed
dl
79
atom
tb
extraction
##istry
committee
##inary
match
wall
##bry
together
fold
placed
europe
particularly
syndrome
oral
internal
what
##ton
cc
diagnostic
schem
learning
enzyme
seen
62
quantitative
2003
##elines
series
##itional
chlor
##truct
acids
incl
investigate
controlled
sigma
best
##oz
birth
##ethyl
mutation
increases
special
od
place
divid
numbers
gender
sod
services
bound
embry
s2
rp
cam
86
##entific
questionnaire
##000
therapeutic
strength
##bor
having
situ
##atal
failure
transmission
ste
component
88
address
widely
##hes
##uts
approaches
label
showing
cas
insulin
grade
date
reports
apoptosis
organis
techniques
appropriate
paras
##tides
##clusion
##dom
ster
1b
uk
mil
designed
antibio
09
purp
remains
scientific
##aa
61
defin
classification
consistent
relatively
suggest
##urse
##oxid
mental
##uter
ss
technique
cardiac
guidelines
restric
##pper
##less
devi
83
gel
generation
##ls
strategies
abn
blue
exerc
release
89
great
subsequent
nc
ow
2a
successful
##izes
specifically
members
yield
3d
nam
##brid
const
cd4
sections
mechan
##ochemical
pen
afric
strategy
##o2
renal
brief
linked
mixed
##ges
##gc
interven
limit
product
##hood
intrac
fluorescence
87
du
run
administration
##idity
##thers
effic
cou
currently
capacity
##oids
south
fraction
lit
file
bmi
unit
progn
technology
adjus
pack
##rs
##set
coe
experience
##den
##ulating
modified
resolution
align
opp
sle
statistically
hb
reproduc
house
far
school
cos
tool
highest
##ious
follows
significance
degree
medicine
hp
problems
occur
activated
lesions
signals
##ique
##itted
##54
generally
broad
ethics
past
improved
attention
diagnosed
abnormal
##gs
kid
degrad
mt
abund
receptors
##57
perip
others
##aries
vascular
ter
##ovascular
2002
##encies
phyl
causes
display
commonly
thresh
alcohol
prefer
##uration
##yth
ds
fas
space
recurr
##olved
##ysis
fram
##ared
##oved
ros
interventions
subsequently
trig
interp
upper
instr
##aged
treatments
respiratory
##ades
mamm
core
nuclear
stro
ion
minutes
##estinal
humans
chain
contact
##umin
removed
##gl
provides
electron
feed
pone
##bl
yes
##iatric
radiation
fund
disorder
##icular
##ometry
##aling
malign
##otox
hd
##ili
onset
systematic
called
md
##icial
media
questions
larger
phosphory
disp
##ench
diameter
##esized
efficacy
numer
##aria
µm
##ocyte
versus
reverse
lipid
check
depression
##ee
event
##ict
##care
##36
macroph
aged
represents
distinct
tex
reli
cover
transl
injection
##bo
##anes
basis
##ively
cann
metabolism
profil
##ophil
##arily
perce
cand
##ula
compr
necessary
##ologic
peripher
##0000
challeng
lt
liqu
pregnancy
trad
additionally
prevent
##arc
rather
avoid
conj
##by
miss
spatial
majority
inser
##ry
##56
##rosis
manufactur
coord
exposed
##apping
stable
centrif
inclusion
now
facilit
##rh
##eal
tc
cultured
mixture
delivery
observ
##rote
error
coupl
71
females
##ceptib
##37
assign
repl
united
dimension
tempor
certain
##yg
action
kinase
arch
mutant
recomb
glut
divided
washed
students
##rich
2001
##rolog
substrate
preparation
##eti
bond
##aring
##omer
##monary
predicted
alter
##irus
susceptib
importance
older
shif
cf
ak
applications
beg
##ectiv
algorithm
candid
healthcare
##oscop
memory
physiological
##bm
##uture
##ened
obes
rob
smoking
##ata
indicating
##bit
classified
developing
international
la
suggesting
colum
##alk
regulated
stages
agents
focused
done
predict
contains
make
arg
magnetic
##yro
assays
infer
mob
##aves
primers
##bre
cu
produce
stimulation
instruc
half
rab
obesity
rot
forms
1000
##atives
convention
become
peptide
resistant
enhanced
million
items
immedi
nature
##ateral
##la
##esth
constant
underlying
exercise
imm
##osa
##que
aden
##olar
variety
young
indicates
motor
elev
consumption
mitochondrial
efficiency
heterogene
plate
http
crystal
m2
pharmac
unique
inhibitor
account
##ogenous
isolates
males
enti
mri
terminal
solid
##33
complications
ped
leads
transition
##fig
120
300
monitoring
150
band
must
led
centrifug
sources
transport
tit
yet
black
intra
angi
##ella
subject
domains
nucleo
cn
stroke
##flu
cardiovascular
fung
base
2019
moderate
panel
antigen
##ott
unkn
variants
diversity
elements
unknown
sodium
##icle
emo
enrich
chemotherapy
##itten
##ils
adjusted
clos
manufacturer
ld
meta
##obacter
microb
details
coli
needed
accuracy
regis
ask
once
endoth
interesting
##ream
eight
##pts
double
##we
attrib
##lo
kidney
course
##alian
heat
##aces
##dle
82
##sh
ww
egf
throughout
##ields
rr
stored
institution
sir
##tex
stained
##terol
ventr
liquid
##tre
living
##xi
occurs
plates
specimens
fluid
pig
##last
purch
peripheral
##ometric
alone
##ometer
92
mechanical
alternative
representative
##ariate
stability
##ope
##ify
pet
making
##neum
81
gc
never
depart
detailed
typically
advant
organization
includes
sensitive
targets
metal
##occ
##way
original
blot
demographic
height
##tile
document
cv
coron
repeated
incor
written
thickness
extre
constit
extract
intake
simple
enzymes
hydrox
orth
tm
##icians
##ode
carcinoma
conventional
##enous
researchers
##trans
seven
marker
contribute
##function
profile
spectrum
nh
panc
pulmonary
##olds
sulf
##elling
sleep
hypothesis
axis
phenotype
##ova
confirm
technologies
##atch
##most
##stream
hypertension
##35
toler
##ples
hence
##onia
responsible
estimate
##otes
##39
implic
interval
microbi
vary
##clus
hab
epithelial
segment
##tral
probability
remov
networks
tax
conver
induce
future
##inated
decl
rich
employed
definition
reactions
fa
ten
threshold
ni
primer
##xp
lang
extern
##cers
induction
resulted
useful
hybrid
effor
pf
person
rou
fo
bd
irr
units
regulatory
##gi
co2
si
##68
libr
##ending
rank
##orn
coding
residues
reason
middle
sr
cultures
maternal
##ends
optical
##44
pneum
cluster
autom
adip
institute
##omas
contain
achieved
##itude
grad
igg
weak
elevated
inhibitors
##ica
reag
mode
##ophag
reads
fract
np
ful
##ned
www
hu
##ogenetic
iso
transcript
tnf
commerc
curve
t2
deep
actin
bias
##itable
##sa
c2
rat
##ged
##cted
horm
gap
interf
migration
mmol
potentially
compare
hydrogen
##ert
suggests
root
suppress
intracellular
lc
safety
##78
pal
neural
pancre
oct
personal
##anch
##wise
2b
prevention
microscopy
entire
formed
direction
force
working
incubation
##ea
##wide
oxidative
##ks
depth
polic
sensor
phosphate
bil
frequently
gp
##001
enrol
91
degradation
lateral
maintained
enter
nr
basic
reviewed
##inity
##ogl
establish
interpre
nf
c3
##99
hemat
particles
purchased
device
colle
replac
decision
subt
oc
concept
lact
administered
external
promoter
correlated
##bc
c1
severity
##lr
famil
late
myc
artery
exist
olig
almost
delay
north
resources
profession
##olesterol
##inate
##ban
minimum
allows
agre
aggreg
deviation
tail
tom
acquired
##org
summar
rib
##48
referred
##ework
barri
##a1
biops
##pective
project
##tc
prost
angle
chin
adoles
service
eye
biomark
allowed
##ycin
lum
##elf
cul
nanop
typical
aer
##uz
systemic
##activ
alb
##tioned
##acl
ln
vess
poll
##uit
sat
framework
##65
adverse
rev
advanced
##tation
##use
little
mh
categories
conjug
slow
##son
note
##ember
targeted
ray
annot
polymorph
cys
dynamics
remaining
substan
unc
behaviour
##ral
accumulation
austr
overe
leuk
leg
400
##reh
##bal
clinic
polar
grown
knock
equal
##nat
##era
equation
tetr
adop
fast
rare
face
requires
longer
##astic
##67
optimal
specificity
completed
##ah
##ash
temporal
swit
wave
malaria
fully
alk
spectra
american
tools
epidem
traditional
gfp
endothelial
metastasis
arrow
close
##yroid
cancers
incorpor
dark
confidence
##ads
##47
generate
##rocy
joint
oh
occurred
##ident
similarly
ethanol
substit
chromosome
plot
towards
pool
flex
isch
existing
##ows
statistics
highl
overexp
deriv
dysfunction
compreh
onc
##romb
parameter
pv
list
##97
none
remain
feature
put
atp
undergo
indeed
fluor
##ises
isolation
au
count
##east
tag
rest
gast
recommend
except
##uary
##ordance
##nt
##ounts
macrophages
speed
ip
##ky
dynamic
organic
stimuli
dop
gm
underw
##ering
invasive
distributed
##li
represented
pse
mild
elig
recovery
extent
##58
slight
fragment
box
melan
emotion
dc
spread
princ
molecule
##atisf
hz
movement
vac
improvement
tree
mirnas
transferred
overl
anterior
articles
economic
mach
##b1
##31
science
2d
househ
traum
dataset
steps
european
repair
participant
laser
sets
gover
examine
gal
programm
platform
figures
clim
randomly
##osite
contained
fill
purified
cytokines
draw
briefly
tend
department
absorption
##thern
ht
##eting
genotype
probe
fresh
##version
1c
f2
##ij
princip
37°c
calcium
cannot
prediction
estimates
channel
langu
reducing
cholesterol
##back
mn
1999
##32
tube
orient
extracellular
##ontal
input
pseud
uv
##oring
shape
auto
attem
country
relationships
##rin
objective
profiles
##artic
wind
mb
##ring
methylation
nodes
belie
worldwide
##ients
nitrogen
roles
zh
electronic
##ocard
ultras
spl
posterior
strongly
adhes
##ptake
cycles
##bral
neurolog
thermal
describe
cham
cav
subun
conserved
lesion
##elet
needs
correspond
##eless
ensure
plus
197
introduced
gran
##ocal
cdna
mp
word
##oster
interfer
involving
dele
sup
dietary
regular
##ensus
om
pairs
column
nurs
##rate
oil
asked
forward
saline
dimensional
devices
fed
##ynth
##zed
attach
##plantation
##utive
agar
bc
##ifications
##osen
##vent
purpose
morphology
##drich
reson
chinese
vaccine
appar
viruses
node
inn
prescri
recruit
progress
aldrich
snps
##otrop
reflections
##45
reconstr
underwent
achieve
cruc
##ights
buil
catal
costs
norm
phosphorylation
##inations
##iology
own
abdom
mirna
theory
noted
author
anxi
occup
coefficient
growing
allele
##ococc
institutional
##eral
ts
characteristic
take
find
uptake
##eli
belong
marked
solutions
##acted
nd
separated
equival
illustr
alph
##ectomy
##argeting
##ogens
bott
turn
supernat
deliver
crystall
nucleotide
##arian
##aft
##asons
excess
illness
250
##ai
ranging
##night
chosen
0001
fisher
##get
let
microbial
pg
numerous
earl
ifn
providing
targeting
element
fm
depending
##ico
recognition
perm
observation
c4
immediately
##illary
simult
associations
fab
anesth
presentation
carri
hard
parents
urban
##vo
promote
complement
##isa
ub
consists
differential
sed
simultaneous
##group
ring
amplification
cataly
##isation
##ada
##itin
recommended
t1
##ready
##au
##46
assembly
arm
hm
square
already
considering
efficient
asym
nanopartic
microscope
manner
iron
deaths
demonstrate
##ips
anxiety
records
##98
implementation
antioxid
land
overnight
nt
110
membranes
intermedi
##rotein
aspects
##enge
lar
regim
complexes
3a
sti
wound
##ocl
expressing
abdominal
##overed
##dna
assigned
subc
subtyp
neutral
##amide
##ero
ethical
max
predom
µl
gradi
##tices
stri
online
track
##arb
plays
correct
start
instructions
vitamin
article
motif
peptides
neigh
disch
##amb
involvement
replication
cytoplas
hf
atoms
behavioral
##p1
1h
families
mis
fatty
##vals
##ley
satisf
mos
genomes
phylogenetic
communication
antic
##ements
break
##dh
uns
h3
respect
nerve
gh
medication
thor
agent
investigation
variance
initially
randomized
##uting
income
diges
##rot
##ality
dry
separate
diverse
persist
ce
text
elim
exact
109
toxicity
tumour
smaller
board
missing
##iform
##55
comparing
multiv
transcriptional
##ectivity
sustain
fetal
consisted
independ
plasmid
##mark
thromb
##inement
ant
##allel
conform
adher
exce
burden
africa
exclusion
##obic
observations
cortex
neuronal
noise
influenz
enhanc
##va
coverage
##lated
pathological
##char
choice
array
intestinal
onto
art
taking
morb
labeled
##isition
accordance
settings
ze
partial
team
##atitis
##lasts
zn
µg
reactive
##66
##ways
reconstruc
##wh
challenge
aud
1998
acquisition
glass
supplemented
participate
chi
recruited
kr
##oxyl
proxim
##ocation
composed
cis
##ectiveness
sufficient
az
##±0
arth
##49
cb
twice
constr
branch
counter
##phal
ech
coronary
accel
##2o
language
ri
biot
##oglob
fusion
offer
ligand
##yle
emp
pip
##sw
intervals
tg
explore
comput
accept
##dehyd
invasion
effectiveness
variability
##eg
##oxide
inoc
gastro
crucial
signs
##tead
issues
##osomes
som
scheme
dispers
chromat
plastic
san
##42
hepat
##ford
##hing
ground
##ytic
##lands
clusters
you
suitable
covid
reporting
normalized
pk
determination
spss
cath
c6
tract
##illin
fav
transgen
characterization
cultiv
##onucle
##ze
motion
egg
##table
##acr
primarily
##dm
basal
attr
gain
anat
govern
marg
##59
extrem
rpm
influenza
phenomen
computed
sexual
ble
programs
output
thre
##enes
##inning
##lu
##ema
availability
shap
measuring
##certain
admission
walk
analysed
##ectious
##vs
##ozyg
removal
2020
surround
gold
subjected
fall
parallel
volt
comparisons
bov
rod
aimed
skill
##oral
prosp
selective
##ota
##ana
##tially
myocard
traits
fields
cerv
milk
##itud
pyr
##oxy
postoperative
protection
vel
alpha
experienced
refinement
prognosis
description
##robial
clearly
communities
dog
parts
integrated
prostate
gastric
##hi
filter
ca2
##uments
socio
bul
supported
polyp
exhibit
##nel
##k1
cad
dy
jan
interestingly
strand
instead
infectious
ethn
move
anth
cold
toxic
organisms
##idine
##rie
py
viability
##ectors
km
raw
etc
manif
##ician
##itals
##osomal
benefits
##aster
##max
aa
occurrence
whose
ltd
##69
antimic
pathogens
invit
leaf
doses
##tility
publication
##ylation
electroph
c5
collagen
outs
dn
antibiotic
n1
minor
perf
mi
tun
recruitment
reasons
approval
##ocr
ast
##eletal
##cles
commercial
micros
yeast
##ortun
rabbit
transfected
##osin
compl
recording
exhibited
synthesized
opportun
elisa
workers
theore
live
veh
hospitals
robust
habit
##ensis
trigger
##acchar
ck
anova
hcc
##urb
1997
##ensions
leaves
stor
heterogeneity
relation
comprehensive
##ffer
variant
antimicrobial
hour
thought
recombinant
div
pb
gt
##43
student
prin
earlier
feeding
##dehyde
staff
clinically
##omics
ratios
##oper
drink
injected
##ara
upreg
recurrence
##plate
cx
protocols
##tingu
##abor
tryp
transpor
accurate
curves
arab
quantification
adequ
remained
extensive
mostly
moun
endogenous
invitrogen
neut
users
##ention
frequencies
asth
veget
snp
instance
goal
ho
gs
malignant
discussed
106
engine
behaviors
##opathy
o2
camp
cytotox
##ergic
matched
doi
##fil
rapidly
spe
distingu
starting
validation
##osing
##ecutive
recognized
egfr
ana
abundance
##ump
myel
van
thermo
completely
thereby
haem
subgroup
antibiotics
susceptibility
sf
nmr
identi
##odes
##ellow
##po
##pati
luc
cervical
irradi
ba
developmental
##plan
beta
stimulus
confl
metastatic
encoding
##lim
stabil
biochemical
hypox
hor
jun
retros
computer
tel
weighted
pathogen
diluted
##ohist
equivalent
qualit
ves
inhibitory
city
cytos
##crim
duplic
positions
##ffici
regional
fiber
##uls
psychological
##ystems
consequently
harves
dried
predominant
##rt
initiation
visit
validated
exch
regulate
nanoparticles
instrument
histological
benefit
n2
##88
rural
##apped
immunohist
biopsy
nk
retur
##ided
autophag
##let
artif
nine
rn
##clear
formal
constructed
lps
pathogenic
category
##ners
urine
sperm
##ito
fro
wavel
##berg
spectrom
enhance
quantified
chamber
##omet
displac
##alc
mapping
105
agreement
pneumonia
gi
suffer
secretion
library
##ritis
mentioned
modification
##atus
bottom
ubiqu
morphological
infil
largely
infants
processed
discrim
localization
jo
##atically
annual
impairment
circum
hipp
##urg
polymerase
balance
##ded
transduc
##figure
gradient
correction
##63
flav
##orrh
##activity
mer
reached
##esia
retrie
fu
independently
aug
homolog
##77
implemented
analyze
challenges
operation
shift
##yt
##ectin
atr
hol
sds
policy
film
gest
preser
allel
##acent
particle
consensus
diabetic
ker
4°c
extracts
brow
trim
latter
estimation
layers
mutants
##ba
participation
##itone
prem
intermediate
##zen
tolerance
illum
locations
transcripts
precurs
##tenance
matter
ple
##ette
summary
##used
##41
##icles
emotional
embed
termin
fluorescent
thyroid
epis
deletion
switch
bed
scanning
##down
volun
bovine
##aptic
2c
analog
calibr
created
displayed
csf
simulation
alterations
maintenance
documented
successfully
##break
cit
##agr
altered
##ori
native
unclear
variations
extended
listed
cd8
pure
##ortic
frequent
hepatic
ice
slightly
neon
pac
candidate
pla
fibrob
metabolites
affects
##ostic
sizes
cortical
receiving
code
##eling
always
aging
practices
##agon
fragments
reflect
tp
iq
##acting
##olec
clon
subm
possibility
yellow
##ki
deficiency
issue
intrav
pathogenesis
##oted
expect
emergency
answ
gut
distric
univers
interviews
vegf
just
efforts
eb
mann
atm
plane
cox
eligible
channels
parent
true
item
pancreatic
outbreak
discovery
similarity
aw
dp
park
digital
##irect
ovarian
involves
##illance
##hg
voltage
precip
kept
##min
expand
tasks
appears
ls
1996
closely
##abs
synthetic
##otypic
resonance
mim
alignment
amplified
ure
absol
tgf
routine
dro
##lyc
##oe
1d
spont
respondents
spinal
biomarkers
braz
##fa
resection
mur
nucleus
ber
supporting
acad
depos
scat
diffusion
thin
ultrasound
##75
##icillin
antioxidant
veloc
dehyd
##pcr
sor
climate
emission
adjacent
##tition
##1a
impaired
fever
storage
##64
peaks
##vate
casp
standards
correlations
##apse
zero
identifying
feedback
consisting
##ancies
ru
limitations
member
nas
spontaneous
discre
ben
periods
datasets
morbidity
iden
residual
stop
temperatures
chest
easily
surveillance
##73
driven
decades
##adder
amounts
perme
coupled
sept
round
microarr
asthma
##ocar
sensors
p53
hous
salt
whe
transformation
ads
genotypes
hpv
serious
environments
bor
qi
neurological
user
defects
logistic
##isions
minimal
##atif
lob
expans
##cript
adjust
centre
##ercul
interface
diffr
utilized
dors
radical
pathology
ions
extension
neutroph
identity
dominant
harm
##bd
indirect
eryth
centrifuged
inh
sv
ka
beam
inner
describ
started
bey
smo
##orts
##enic
##iph
##ocamp
cerebral
rice
mv
connected
immuno
qualitative
##treated
facilitate
abc
##hr
therapies
give
cytokine
c7
organs
agric
##ifer
neck
trained
advantage
donor
##osome
blind
electrode
causing
tris
reagent
bars
##icin
uses
web
downstream
##di
enrolled
reviews
adhesion
##fe
##anth
outside
revers
recommendations
vide
hex
perceived
fibrosis
provin
bes
sug
##att
trauma
sant
january
package
affinity
fabric
contribution
agricult
physicians
seq
##cher
benz
identical
oxidation
conjugated
##cents
absolute
##89
##62
fc
##itus
##anic
possess
width
repeat
tt
assumed
##here
distal
descrip
prognostic
motiv
brazil
##time
acceler
promising
##elium
counts
pregnant
gli
##cal
modifications
screen
##lin
symm
longitud
trop
##aper
explored
household
indus
vul
translation
respective
overexpression
construct
##izations
##ka
hippocamp
unp
##ensively
trend
wavelength
resource
monocl
##ued
predictive
##51
##enchym
sensory
attenu
##ives
adolescents
absorb
verte
entry
loop
eg
induces
zone
dh
##off
centers
depends
arterial
##zer
clean
databases
society
##otropic
references
1995
myocardial
vas
blast
producing
##inger
##tively
##ostasis
offs
sense
##rd
comparable
standardized
##umab
splic
classes
occurring
forming
##agg
errors
loci
##enari
##ato
separation
capture
regen
##ococcus
representing
##itively
amb
solvent
hormone
##ogram
##avage
##rec
##ochemistry
bind
mature
##azole
nacl
hcv
c8
stratif
namely
protective
qpcr
loading
10−
integration
ig
austral
pic
recip
sciences
##iotic
comorb
##olytic
teach
fracture
substantial
##atib
##01
genus
##vis
cord
##ibri
neverth
asc
nevertheless
biology
125
##ril
caps
net
substrates
inside
theoretical
exon
supernatant
allowing
reproductive
evolutionary
spin
tubercul
summarized
##79
restricted
probes
released
##immun
tlr
scenari
largest
##ovirus
pulse
cg
##elihood
hydroph
##imer
prolong
rc
guide
aver
phenotypes
nerv
haz
likelihood
##ressed
conclud
##osity
##weight
attributed
monitored
##utaneous
vaccination
paired
##patient
laborator
##ibly
emph
##oprotein
kh
smooth
lm
eq
dental
receive
pil
changed
phases
african
cereb
##iral
improving
s3
akt
nearly
explained
simultaneously
ko
understood
affecting
prospective
locus
mobile
##acer
moth
makes
examples
vehicle
##aine
kore
##52
hypothesized
ent
viol
representation
##uis
sectional
hapl
capt
math
##abilities
##totic
enriched
shr
##ycl
##ani
charge
neurop
amp
stock
dissolved
tomography
transfection
assist
##itory
accomp
3b
farm
##insic
shel
##itting
superior
explain
soluble
pel
diver
coated
consequences
oxide
multivariate
discharge
dend
##des
bis
sirna
nar
cro
kine
expansion
inher
##ament
barrier
uncertain
##ws
##rog
laboratories
biofil
##uch
600
abnormalities
ranged
##61
lowest
mammalian
##ophys
forest
##itary
compart
##lip
remove
lv
abundant
stimulated
velocity
interact
government
marrow
##electr
##load
##point
##onch
##fort
excell
pell
##n1
manip
##ynthesis
scaff
exchange
##fr
modeling
longitudinal
##87
kill
engl
rig
fals
##actory
vessels
reliable
##ensities
sun
conversion
##plc
wang
##onin
##key
competi
methanol
spr
frozen
dilution
1990
h1
dd
manifest
embedded
infr
##oscopic
##usc
spectroscop
visible
reliability
##rophic
rise
##c1
separately
##idal
isoform
get
planning
kb
cry
span
displacement
eyes
elder
##hd
skills
##sin
##ave
##entia
surfaces
define
nervous
##ano
frame
varying
harvested
##itect
ventricular
calculate
epig
perception
##aints
collabor
sequenced
fruit
persons
complexity
surrounding
electrical
visits
sea
inactiv
##urally
insp
bay
filtered
##aceae
facilities
##anned
beyond
ti
defic
##rocytes
perc
algorithms
ethyl
hg
distributions
disability
##thal
mosqu
chol
##f1
gram
equil
uniform
horiz
##ered
##osal
##p2
104
sho
beneficial
name
shared
adaptive
pn
config
c9
refr
create
chromatography
formula
threat
otherwise
##ison
cyp
foot
adequate
subunit
construction
##ards
embryos
##rophy
differentially
urinary
pediatric
crc
experiences
tuberculosis
td
india
##ozygous
session
tob
covari
180
specimen
##essions
semi
immunity
fox
##rup
##ester
transplantation
##io2
##acco
lam
analytical
##idae
l1
law
sy
cla
retinal
##oglobin
copy
technical
varied
dementia
##95
clustering
##hc
intensive
retrospective
##ologists
ace
composite
abstr
mosquito
nutrient
sterile
fungal
lin
consecutive
cytometry
ram
gastroint
rhe
##ucid
covered
genotyp
risks
west
words
brown
transformed
deposition
actual
fibers
append
bleeding
##86
ty
australia
inhibited
subset
##oa
##plas
volum
##ares
##apor
distinguish
spp
##iness
ven
proximal
decline
progressive
transgenic
obvious
##avirus
nutrition
gastrointestinal
seek
sampled
venti
##avy
a2
acetyl
##bb
childhood
feas
progen
college
scales
clar
bilateral
fbs
amyl
enrichment
##ulus
orientation
reser
bands
seems
microarray
december
look
hip
directed
susceptible
rout
##urity
inters
mmhg
page
march
elderly
##oor
powder
gy
fol
##mp
false
highligh
hair
autophagy
itself
vein
coordin
dual
##ometri
chick
amplitude
##opsis
##ectal
vectors
##odynam
distr
architect
##kin
ligands
template
##iring
osc
beginning
##002
ly
hla
bow
##ced
bronch
methodology
deform
instruments
##urance
elucid
parasite
adherence
atmosph
pub
ot
english
decreases
hydroly
putative
gd
placebo
considerable
##ror
##ohyd
calculation
quad
situation
cavity
apoptotic
comple
##queous
##enyl
https
computational
##ulum
insu
meaning
besides
caspase
plots
recurrent
immunos
tubes
nad
tf
blocks
hepatitis
derm
odds
effectively
necrosis
accoun
g001
mother
tobacco
derivatives
##illus
pix
hos
professional
##ocarcin
cum
ever
##inson
shock
physician
aqueous
importantly
capable
assessing
homeostasis
diagr
eti
##atics
−1
##issions
##oscopy
presents
cool
port
canada
knee
illumina
mothers
##olysis
regulating
machine
overc
108
vag
##olip
facility
r2
melanoma
determining
object
advantages
##oming
lac
fractions
vertical
ultim
119
skeletal
adapted
excellent
##uries
mitochondria
appeared
##usp
colony
building
empir
degen
mand
bat
edge
outer
sent
alleles
requirements
chromatin
fec
wil
##f2
indicators
dimensions
##hl
##ifying
manual
130
κb
influenced
intravenous
##elled
vital
scr
##ught
psychiatric
##ested
adaptation
pooled
vacu
ranges
upd
lap
##isp
pu
adopted
demand
symb
aims
##−3
investigations
antagon
infar
ones
monoclonal
scans
east
albumin
larv
newly
heavy
aβ
140
platelet
screened
france
##np
residue
mell
emb
limb
##amental
icu
nuclei
questionnaires
lr
obstruc
reading
accession
partners
##onym
homogen
stay
neighbor
bac
##ulose
bladder
##cl2
medications
catalytic
share
##itoneal
##t1
##tum
c10
##uly
sou
conduct
##bank
dial
ham
coupling
circulating
localized
hall
functioning
financ
fine
##cler
sessions
centrifugation
ny
db
segments
station
aure
magnitude
virul
kda
##aceu
purification
##2a
dmem
classical
accep
maps
reconstruction
extremely
sensing
##rose
##iction
oscill
promoting
suspension
educational
santa
rrna
##96
reduces
ather
swed
die
refs
untreated
nps
propag
phenomenon
exclus
musc
delivered
too
rein
closed
spectral
##uits
dmso
sound
1994
restriction
peroxid
mov
deficient
neph
o1
biomass
##exp
sars
compet
##ials
wors
##cape
glutam
explan
##74
operating
appearance
seps
probably
##organis
dt
ecological
obese
##idin
##omical
ischemic
rar
tip
##fluores
##transfer
##chron
##iae
comprised
radiotherapy
colorectal
gave
##ivariate
lncr
larvae
parental
##ocomp
healing
principal
options
##76
##ache
reh
southern
pros
##ibrium
breeding
parad
differentiated
attit
rf
insertion
##72
hsp
##edic
##hs
103
fif
sched
cns
##opic
downreg
surveys
##aking
validity
##lycer
iqr
alkal
biotechn
##amination
##ipped
increasingly
##rous
seeds
ju
supply
002
tor
presenting
fati
win
positively
##uous
embryonic
perspective
eosin
serve
phenyl
dogs
##hai
phenotypic
##ya
concern
spher
implicated
##uvant
##fficients
ages
province
movements
chemicals
coefficients
syst
registered
autoimmun
lymphocytes
aureus
slides
kind
manus
##ocyt
##c2
papers
um
emerging
simulations
partially
absent
acetate
microbiota
histone
##85
took
sepsis
ferment
fatig
infant
##ancer
je
##itt
##rought
bonds
hcl
breath
normally
films
##100
initiated
##00000000
schematic
fundamental
adding
photos
##gens
merc
finger
hypoxia
##ux
washing
distances
##oresis
##after
4a
nurses
war
##ura
quar
wet
replicates
remark
nutritional
##ione
video
##aint
histor
sand
heterogeneous
microorganis
lifest
mom
louis
ras
fasting
extensively
nl
comparative
synaptic
codes
pear
qiagen
thi
trees
intrinsic
keep
carr
cruz
##actor
dos
disru
##ulatory
alt
##times
consult
pca
rnas
##oon
continued
##igen
seem
deb
mmp
##oli
ways
district
##zation
easy
encoded
colleag
chip
mess
##ilities
june
dorsal
injuries
ecos
colonies
##aryng
overview
replacement
decomp
neoplas
fixation
bon
absorbance
##mia
mw
subtypes
northern
shor
dw
##alling
spectroscopy
##isms
metastases
##enty
structured
categorical
retro
##ife
##oscler
industry
extra
uter
wat
impl
season
filled
atomic
quick
america
actions
electrodes
crp
##con
corrected
elic
apparent
attached
isolate
irradiation
suppression
quant
persistent
mscs
neurode
gall
marine
purposes
promotes
hdl
##athy
reveal
nons
##ora
neonatal
##alities
poorly
schiz
##iance
##oblast
##oside
aortic
##iment
##ham
##mann
surge
virt
interpretation
challenging
prolonged
clone
lost
nano
enough
direc
wheat
##ctt
##mer
arabid
attack
##versely
annotation
##ests
italy
##wan
fatigue
foods
safe
hplc
transient
mf
depic
##ayer
delayed
drop
edta
colleagues
##agc
controlling
nih
predominantly
##ady
##gtt
##p3
residents
pharmacological
##ocrine
catheter
vill
reporter
arabidopsis
angles
epidemiological
##acet
concerns
107
##omers
becomes
possibly
hund
saliv
patch
vic
ont
cleavage
consequence
##atum
muscles
performing
jud
confound
##iaz
industr
rb
hemorrh
zhang
vessel
bs
aspir
suic
tyros
unre
notably
option
camera
anesthesia
epiderm
cytoplasmic
##ocarcinoma
indicator
fibroblasts
enzymatic
tables
##84
gon
river
cig
##cn
whit
barriers
##ontin
rd
reagents
aqu
nanos
hundred
genbank
diarr
private
precursor
003
mda
window
categorized
portion
preoperative
##enia
##aldehyde
1993
professionals
##oman
april
##enchymal
##chem
dependence
characterize
accepted
##anged
ips
##ago
ldl
compens
scler
##rane
##ni
##93
lucifer
descriptive
assessments
glycer
replaced
combinations
drawn
pin
##ools
##anine
disturb
race
creatin
##94
roots
bt
conclus
accordingly
title
named
hors
ncbi
drinking
##v1
penetr
wood
fri
epigene
fd
dich
##going
800
##inf
enable
ideal
streptom
asia
precision
limits
mellitus
##orous
strom
zinc
meeting
artificial
igf
inhibits
gir
antigens
trait
modulation
lacking
relax
asymm
traff
histopath
confer
fitness
deposited
smart
applying
1β
effort
para
narrow
euk
volunte
twenty
vertebr
creatinine
ket
biosci
protease
##ulative
##ming
spi
concerning
##83
lp
tib
dye
##err
bud
electrophoresis
optimization
corne
select
##ush
statement
##wards
vision
e2
knockdown
metall
seeded
waste
##opo
hot
silic
shorter
roch
gib
changing
younger
practical
c11
##tein
160
venous
hbv
rating
##ml
ubiquitin
pand
explor
els
das
lipids
regulates
gray
negatively
diagram
chen
simpl
former
joh
##ift
##affin
chains
intact
ect
pharmaceu
##r1
plasmids
providers
sometimes
fungi
##ylated
eukary
vulner
flag
minute
contents
binds
shaped
conclusion
##ging
financial
simulated
hydroxy
shang
innate
favor
involve
##uria
failed
manuscript
##fam
salmon
##upp
evaluating
cdc
elong
a1
##anial
nether
##eds
suspected
activate
##tructure
industrial
enhancement
gland
horizontal
parasites
##ola
resolved
integrity
counted
##rees
market
##know
meet
buffered
mineral
pas
asian
conservation
agon
walking
##uck
contributions
murine
##mal
ppm
##arp
##omon
implant
005
##agt
goat
##iger
converted
hypothes
iod
chromosomes
glycos
##water
trends
##elves
flux
recombination
graphene
arrows
carbohyd
tl
gw
arthritis
undergoing
retention
ft
operative
##82
accompan
netherlands
##ophila
became
pert
puls
pump
biosynthesis
##ophage
focal
detector
maintaining
participating
engineering
triplic
island
endometri
loaded
defect
##kyo
##adian
maximal
101
anten
cust
impacts
rotation
clones
thorac
tele
hier
##arcoma
m1
##zing
lifestyle
calibration
c12
##mm
precise
stere
acknow
##angl
tokyo
##ectives
rock
##ctc
ord
##aving
sb
icd
ongoing
comorbid
arom
bill
copd
individually
gab
xyl
luciferase
proven
why
congen
mad
##amic
##aga
aligned
remod
##92
dram
seiz
##oidal
automated
quantify
##ocytosis
cris
overlap
##ulties
contributes
wnt
module
mesh
died
p2
aids
##electric
promin
specified
prevalent
phyt
equip
brom
born
##iton
shanghai
decisions
atheroscler
volumes
##okine
smokers
july
oa
eeg
##uge
lineage
mun
microgl
fs
contamination
acts
##term
incom
cm−1
null
chloride
##pread
korea
##atc
##flow
h2o2
publications
rehabil
domes
##ulates
##g2
cigar
cytoplasm
diast
fgf
deple
df
communic
hierarch
sas
cond
stom
diffraction
potent
division
##uker
mobility
excitation
wides
rv
xen
##gent
treating
penicillin
##urated
lib
potenti
systolic
architecture
autoimmune
bodies
donors
widespread
electric
modern
objects
##k2
##inform
##ida
linkage
ecm
admitted
adipose
polymorphism
atcc
refers
##ala
##ematic
preferred
##ographical
utilization
spectrometry
gov
cvd
##hea
gamm
decreasing
rub
signalling
visualized
microorganisms
excessive
casc
captured
careful
relev
##ipar
dex
discovered
addressed
##udes
##ypt
substance
ball
pore
rheum
fp
conflict
##aken
inserted
##areness
##×10
t001
coch
epile
biotechnology
regardless
maturation
exists
interests
spot
nursing
##pro
##ita
academic
bruker
difficulties
obst
encoun
##81
##ologist
bulk
##nd
virulence
thems
gam
domestic
influences
needle
princi
themselves
king
blocking
incomplet
aggregation
prelim
inducing
polymorphisms
c57
beh
##h2
accompanied
relevance
##x2
##atase
empirical
encour
##tch
brid
criterion
awareness
contamin
distil
lands
biofilm
sap
vaccines
timing
anatomical
master
binary
equations
proportional
retin
difficulty
##ration
geometry
verified
##phosph
programme
mini
ki
valu
existence
equilibrium
##akes
roche
principle
epit
overcome
uc
quantum
fourth
objectives
big
##ellar
mask
lep
radio
bsa
hybridization
elsew
principles
##ptions
elsewhere
##omb
sugar
lens
scored
##ysacchar
intell
aid
sple
##clc
##acial
vibr
##anger
axial
mapped
highlighted
##omycin
epigenetic
##embr
front
caregi
metric
##like
##uctu
synchron
warm
##bour
infarction
matching
hif
limiting
accom
overweight
upregulated
rough
fluctu
mtor
lymphoma
declar
##02
effici
1992
contig
##avi
homogene
airway
angiogenesis
dros
organism
cumulative
biosystems
built
satisfaction
##sis
blocked
undert
fewer
benign
recovered
004
##x1
stir
##91
##transferase
degrees
genotyping
##bar
cultural
birds
popular
univariate
works
##aca
coating
1e
requiring
photo
tight
scoring
tens
ultimately
##onom
claim
illustrated
bab
##3a
cm2
dap
connectivity
adenocarcinoma
constitu
tyrosine
somatic
internet
immunohistochemistry
crop
cartil
epithelium
conclusions
depletion
16s
##ptomatic
asd
spor
minimize
102
rehabilitation
dead
##teen
innov
aspect
qrt
3c
ammon
nom
interference
##rile
colour
subunits
##arged
peg
teeth
##aker
files
schizoph
##n2
equipment
tracking
exception
##draw
corresponds
##fluorescence
128
##ories
constructs
##puts
greatly
##phone
##emat
whitney
tooth
rain
stretch
webs
##ped
eating
infusion
##olecular
##dis
weights
outl
swe
kl
calculations
##idium
##no
carrying
september
geographic
vo
##assium
stratified
##cephal
desired
##mc
crystals
ischemia
agricultural
stain
blotting
complementary
schizophren
assumption
##ober
agil
acting
subtype
surviv
##otomy
thym
che
dot
negl
sinus
multic
secreted
subcutaneous
tai
coordinates
##platin
schools
herb
##teine
cohorts
predictors
##yc
##ini
trp
hazard
111
modes
anthrop
##odynamic
universal
pigs
naive
substances
##graph
insights
agilent
##antic
travel
paradig
grain
cytotoxic
clinicians
dimethyl
potassium
flat
##pted
fore
withdraw
implications
ath
margin
fractures
var
transcriptome
adapt
nav
outpatient
qt
tau
card
p1
dic
distress
takes
eastern
checked
throughput
##inder
graft
apart
peer
eggs
010
explo
strept
mammals
goals
pearson
##ritic
advances
##vic
bowel
##ias
##enter
##ama
hospitalization
traj
##ho
##oked
hemoglobin
asymptomatic
percentages
##brevi
insight
##iang
gradually
competing
gapdh
decade
lysis
##pring
adren
evident
boundary
october
pall
##odi
##lings
corp
regeneration
##gence
##entis
##aphyl
assembled
socioec
abbrevi
chemistry
preliminary
endemic
sought
leukemia
sen
unlike
format
rarely
1991
stated
aberr
emerged
cyst
auc
leth
bic
fertil
declaration
neutrophils
distilled
neuron
adjuvant
compliance
quite
##adily
##osine
##asion
medial
distant
fear
c57bl
carrier
##rophot
##amycin
pay
pilot
figs
##ophageal
quantity
##pan
inver
appendix
consideration
bearing
her2
night
build
mesenchymal
utr
##hydro
immediate
nasal
optimized
amyloid
interm
##mt
consistently
##iveness
ae
rhyth
demonstrating
spectrophot
investigating
libraries
shell
infiltration
yields
neither
streptomycin
immob
ide
expanded
ib
forces
preventing
2h
contributing
gro
mu
liu
configuration
concluded
cardiomy
lb
##uncture
applicable
##inki
topic
opportunity
equipped
hels
expon
pit
tan
elevation
tac
nsclc
circulation
regulator
resusp
ckd
##ko
sul
bioinform
pes
##itant
compartment
varies
##onate
neurodegen
held
##pe
##obacteria
##ilized
##oglyc
participated
generating
##enin
wells
sham
crude
diagnoses
##hen
hosts
##ocardi
##oto
gestational
novo
rip
reti
extreme
valuable
offspring
biomarker
inoculated
##axis
cortic
##poration
118
helsinki
situations
property
sud
weekly
completion
schizophrenia
pent
oce
habitat
1016
##embrane
t001table
precipitation
##rel
mening
lapar
observational
partner
copper
hl
proph
alex
drosophila
august
gamma
anne
##rect
dox
symmetry
dip
socioeconomic
driving
indices
pbm
hearing
numerical
running
effector
regarded
##entive
veter
incorporated
resting
upstream
##ceptions
s4
hoc
wu
hind
##itol
##3k
ethnicity
mcf
biomed
auditory
ll
detecting
stra
##acin
##king
contrac
motifs
focusing
whom
copies
sep
termed
accurately
magnification
describes
heating
cattle
macro
##usions
ah
humidity
##mod
f1
defense
surpr
contributed
##icking
transmitted
perman
peroxidase
clearance
cartilage
##nf
inferior
cytotoxicity
labeling
lu
facial
propose
insufficient
##infl
depressive
monocytes
belonging
quin
##onomy
believed
insect
comprising
va
regimen
coordination
route
funding
##jection
macrophage
beads
incomplete
assisted
aggressive
studying
seconds
adsorption
dehydrogen
usage
tropical
reper
think
protect
arc
##oline
##pecific
##clin
isoforms
##virus
##m2
kim
##iop
sustained
##ees
raised
polymers
explic
infiltr
tumours
##olin
prominent
complicated
##opes
unable
circular
zebr
wire
##itter
strict
##ologous
combining
##m1
seas
abd
away
emergence
substitution
congenital
##ply
##arin
deng
##izer
proton
subjective
disrup
spleen
interacting
##03
phag
dx
rule
##otid
mag
##itability
activating
deficits
moment
prescribed
kd
disruption
diffuse
paraffin
junction
practition
retrieved
detectable
feel
emphas
##agement
malignancy
clinics
sulfate
serial
##atg
121
spring
ccr
mono
intes
epidemic
batch
echocardi
##inants
confocal
apply
granul
femoral
overlapping
glomer
incident
coc
phil
##fold
inhibiting
iran
triplicate
opposite
continuously
##yll
dissoci
##actic
spine
acknowled
##ploid
newbor
yo
conv
chloro
##ilic
guidance
##d1
insurance
immunosupp
border
##bh
agarose
pathophys
routin
##omonas
##zo
fibr
##ellite
##itic
##a2
attachment
codon
##iasis
##ecs
##unately
supr
iter
iu
transcribed
differentiate
households
mas
020
carriers
g1
##pc
beij
registration
scattering
##o4
supplementation
explicit
arrest
improvements
sucrose
your
scar
splicing
annotated
solub
embryo
antis
enables
attempt
##ospor
frontal
##inflamm
##l1
h4
sweden
digestion
leak
biosciences
nutrients
h5
lengths
proportions
bh
##vascular
eventually
relapse
denat
gn
##day
spain
carry
chond
candidates
bcl
moving
##psych
coast
tx
preference
##amous
bank
piec
pandemic
soy
contacts
##ounc
symptomatic
viable
ethnic
atmosphere
elastic
dissem
valve
##ocytic
homologous
##oic
definitions
interle
subgroups
enl
c13
compression
h2o
a3
nb
originally
uncertainty
manually
continue
##opol
resuspended
beijing
reaching
##ographics
observe
##obl
sediment
trich
116
vl
##awa
##planted
triglycer
abcam
owing
ventilation
shear
hydrophobic
flexible
concentrated
cloned
adjustment
custom
immunofluorescence
abuse
neuros
stiff
##ichia
guided
##isc
senes
limitation
coded
gps
bath
conven
mind
neo
transduction
##cale
##tors
pad
kinases
##ians
episodes
micror
happ
115
aliqu
transplant
chromosomal
##ugin
cyan
lungs
450
silica
perfusion
analyzing
pellet
##atment
##environ
ai
##gu
taxa
predictor
reinfor
seasonal
consistency
ic50
examining
circuit
knockout
diastolic
##plasia
##b2
nos
bayes
sten
##cepts
permeability
idea
dendritic
plasticity
##ously
evapor
t3
mex
tick
##irs
2σ
speech
taq
hippocampus
##nia
lobe
microt
##viral
calif
reader
##ochrom
##vem
pharmaceutical
##oderm
averaged
nov
geographical
biomedical
tu
##adic
scenario
122
repeats
reflected
droplet
tam
metals
concurr
grouped
##iliary
predictions
ulcer
112
monol
##ograms
taiwan
commercially
##oney
##ifier
earth
comprom
produces
profiling
##ira
##uity
dimer
##otr
foundation
##rotic
##uate
designated
coag
conflic
slices
gg
photograph
volunteers
discontin
administr
mucosa
lee
falc
##atible
antiv
translational
covariates
purity
microenviron
examinations
fet
transmembrane
arri
attempts
##eded
cues
##veolar
job
χ2
ago
tas
mounted
##ei
implantation
isotropic
##itors
envelop
determinants
vaginal
suspended
demographics
naturally
dehydrogenase
arms
dcs
ger
toxin
drive
requirement
vacuum
sar
manifestations
capillary
lactate
##bach
predicting
kinetics
expert
return
sensiti
cutoff
##ilization
immunop
117
sided
fitc
1α
##clinical
##ille
lic
cpg
##05
rm
##aryngeal
apical
japanese
##06
concom
yielded
bip
grey
##chemical
reward
pron
opin
tetra
##recip
anc
remodeling
californ
notch
split
coil
ank
organized
biotin
δρ
##ister
fel
novem
tap
served
##04
modulate
phosphatase
utility
verbal
##inge
pi3k
meat
recall
collect
static
4b
mrnas
##osites
##gal
passive
5p
anch
nucleic
amph
registry
##afish
depri
catenin
offered
concomitant
silencing
osteop
zebrafish
edema
imag
tio2
generalized
switzer
steady
opi
interleuk
november
##ocyan
homology
sah
teaching
129
febr
switzerland
ocular
1980
cot
##ctg
comorbidities
##iers
flavon
##09
dan
evol
dav
saturation
126
123
sector
a−3
etiology
lysates
trace
pod
genetically
visualization
##rated
ine
##inescence
grid
dut
##ophosph
reflects
##psy
dengue
answer
precipit
##otide
gives
globally
##ggt
roc
substantially
hun
##iding
opening
nucleotides
terti
##ques
february
supports
##acerb
attitudes
sacr
recordings
exacerb
unfort
contro
osm
##plex
deviations
##arth
##ynthetic
faster
##azol
##za
regulators
##oxylin
assume
sna
attend
##iver
conductivity
ventral
clock
##cap
began
mapk
alz
experimentally
efficiently
##oplast
expressions
unl
moi
cac
conceptual
discrimination
prepare
investigators
analyzer
circumfer
translocation
##linear
secret
couns
policies
estrogen
controvers
##ocated
enhancing
rg
pollution
##acing
##cm
plaque
##ascul
lifetime
##heimer
##angement
rins
##azine
panels
complication
##cd
124
prism
exogenous
hit
accounts
rheumat
##o1
consumed
##omeric
experts
c14
kar
causal
england
mathematic
##xy
gait
canon
cin
atrial
phosphorylated
constraints
proved
stronger
aromatic
nico
700
pts
##auss
gf
constrained
genetics
cisplatin
hydroxyl
destruc
powerful
engagement
c18
drain
lh
##pin
diagnostics
diets
##igation
nich
ambi
submitted
##cious
elimination
surprising
protected
lipoprotein
millip
immunobl
concepts
microscopic
exhibits
insects
superv
dialysis
company
##pos
gels
##lam
occupational
exclusively
##ysts
nonlinear
##atid
##iliar
##ault
ppar
waves
silver
epidemiology
fruits
decay
comprises
bus
mhc
##while
placement
actually
mutated
13c
sheep
phospho
infrared
##tures
cub
immunohistochemical
readily
##−2
obtaining
optic
automatic
##ophilic
undertaken
thoracic
squares
thorough
orange
staphyl
giving
restor
##07
drought
β1
vox
yang
intestine
incons
calculating
##rim
indian
diarrhea
trypsin
ses
unfortunately
straight
responsive
flank
sequential
bol
glycop
insec
atg
usual
squamous
cd3
rpmi
hi
conformation
monthly
searched
california
##ulos
offers
reservo
##clonal
obl
exer
006
##ena
vesicles
sac
woman
ambient
microc
mixing
##anner
estimating
windows
palm
nurse
supernatants
cirrh
phage
instability
routinely
##bad
eligibility
gross
ends
chic
describing
specialized
slope
microenvironment
##aved
114
hydrolysis
##±1
gb
tagged
directions
##opl
synthase
emt
pyl
evid
grass
lith
paradigm
##bean
retained
allocation
350
##erge
##oag
glycerol
##treatment
graf
##well
shifts
institutions
simply
entered
carboxyl
competition
mucosal
trunc
mab
county
supplemental
escher
isot
d1
waters
repeti
cass
##ilateral
##tra
sib
##angi
depicted
outbreaks
oph
sheet
##enn
corneal
interleukin
lag
zo
##fc
suffering
mathematical
fulf
anemia
flies
sharp
maize
hepar
##uan
tow
cfu
covers
alzheimer
##rick
##eleton
irre
suicide
##haus
triggered
escherichia
quickly
##auc
counting
aerugin
reactivity
traumatic
firstly
degeneration
plotted
kaplan
virtual
##inating
suppressed
pigment
syr
##hol
pup
discrete
gibco
radius
resc
fitted
##ressing
serine
coher
113
stream
hh
1989
##ettes
brca
lane
nj
glutamate
row
stack
polarization
ecg
−80
##abled
physi
aeruginosa
facs
cysteine
lineages
flask
pref
excluding
planes
ester
segmentation
filtration
conce
##ker
##obacterium
steel
slice
wi
moist
##acryl
facult
subsets
pubmed
links
resol
visc
metabolite
##atile
fitting
aml
##ariable
accessible
terminus
millipore
referral
fourier
##08
cellulose
rupt
##orbed
293
intensities
apparatus
prophyl
clo
xi
wm
vast
wear
mouth
premature
μmol
##opoie
scal
formulation
##family
lncrnas
h7
mtt
##urys
prescription
##arse
polyclonal
acr
intended
immers
##aden
ecl
deter
##ius
additive
scaffold
feasibility
ihc
kv
##amer
stromal
tet
mediate
redox
##adequ
seeking
girls
biopsies
##osterone
inadequ
lign
fire
inconsist
salmonella
intention
o3
ministry
hippocampal
presum
hek
3p
picture
correlate
provision
lattice
corporation
thal
housed
##oustic
modules
resin
sacrific
connection
correlates
carls
##eptide
mhz
duc
sput
##eties
fair
setup
sox
permanent
opportunities
retic
stomach
demonstrates
bioinformatics
kingdom
##ret
empt
exec
terr
##asome
percenti
chose
dimin
signature
135
chart
egfp
unless
behavioural
##isph
stranded
##h1
##head
fmri
renew
##agnetic
atherosclerosis
crops
urea
markedly
occasion
physiology
arrays
sharing
##ief
evolved
herein
analges
mood
spent
##iro
tailed
##empor
establishment
##unch
scenarios
mediators
##path
abor
crow
##han
frames
blinded
transpar
headache
intram
motility
dosage
arteries
heterozygous
hierarchical
losses
cyl
007
ug
##t3
locally
german
##entin
dissection
homozygous
stiffness
g2
sag
views
portal
h3k
survivors
##enta
come
malignancies
canonical
d2
histology
fermentation
hemorrhage
office
equally
chim
##aka
##points
normalization
verify
covering
##idase
meier
assuming
diego
broth
accounting
hypotheses
microglia
resident
quanti
antiviral
meanwhile
chicken
##illa
acceptable
medicines
atyp
electroly
dock
vp
sg
proce
##ompass
ocean
edges
##nam
mimic
chicago
discrep
##gers
##odium
##elets
signed
motivation
fn
##etized
dsm
taxonomic
derivative
pelvic
propagation
##ochrome
activates
ff
##otal
##a1c
apc
lamin
##enol
helix
thous
amplic
statistic
##ophy
cab
##pad
gmbh
##ping
g001figure
##orth
ku
immunoprecip
exons
encompass
##entists
oligonucle
arise
t2dm
##chlor
synerg
thereafter
triang
poin
ken
imped
harbor
plated
explanation
planned
008
winter
intraper
127
aspar
phosphor
##omial
atl
promotion
cascade
century
pixel
nonc
rules
apex
cognition
glutamine
bw
##lets
b1
encodes
peric
pw
soc
fus
bot
mosquitoes
1987
recognize
behind
injections
145
cast
##r2
conversely
rnase
lysine
solve
incision
rearr
5a
cation
##quin
autis
##bing
cycling
capability
ars
preterm
g002
##abling
genera
worse
##asts
deterior
dense
gaps
##cp
epilepsy
carefully
carbohydrate
parkinson
inferred
approximate
extend
immunoblot
leuc
intron
inverse
download
##mental
##omorph
lon
##ogenes
solv
oriented
gauss
digested
collaboration
hba1c
ibm
niger
prone
hormones
tertiary
dispersion
trach
##oides
bases
cadher
enroll
##osures
##fusion
##hou
perturb
replicate
240
annealing
quadr
##titis
encephal
returned
170
anaer
rely
##tives
spik
bif
radiograph
bf
##uscular
##pped
##imb
densities
##alis
##acterial
bag
##pass
##o3
highlight
mast
##onit
bayesian
preserved
##anda
canal
1988
##ocon
immunization
conflu
v1
gather
pneumoniae
ile
segreg
restr
##600
labelled
cough
lot
silicon
affili
231
expend
interc
##net
deformation
mdr
upregulation
echo
carotid
productivity
spectrometer
##ua
intense
microtub
inoculation
##advant
##oms
security
ane
unf
son
disadvant
stimulate
creating
youth
translated
rhiz
favorable
cauc
removing
##tium
vaccin
##ationally
inactivation
abbreviations
eukaryotic
##tified
##regular
resemb
aph
epidermal
endocrine
bile
positioned
carlsbad
grav
swelling
fly
agreed
lymphocyte
##ken
themes
lists
becoming
2e
pak
##ilst
tradition
agency
crypt
ky
irregular
inequ
latent
tabl
relaxation
p3
##atibility
##bridge
remote
hemisph
hdac
retina
attain
vascul
##onymous
i2
fb
vig
poli
neutrophil
eps
conserv
genomics
tcr
transporter
behaviours
ultra
entrop
##olid
neurot
standing
##nis
expendit
projects
msc
whilst
retrieval
automatically
attenuated
##pes
adolescent
systematically
multim
eleg
utilizing
##apol
geometric
##unt
anomal
sick
oncology
##avail
suppressor
histopathological
##yph
anticip
hela
caregivers
##men
n3
##izumab
##eres
selectivity
##eptive
doctors
aggregates
vulnerable
##rocyte
myeloid
##rosion
tand
##inflammatory
caucas
prep
##opoietic
rings
##unctions
smith
vegetation
ws
electrochemical
alveolar
##6a
nlr
stenosis
##ez
##plinary
gse
transverse
decided
modelling
stresses
mk
##omat
elongation
##uli
interpreted
agree
als
hk
prosth
volunt
jn
reproduction
zno
bonding
microbiome
tension
matric
ances
tin
alkaline
t4
closure
aerobic
gtp
hematoxylin
disag
dashed
##iii
react
##ishing
smear
differed
trust
antibacterial
ablation
##odon
vin
##iparum
fibrin
fabrication
managed
filters
attractive
senescence
allergic
til
##dep
##mg
cement
astrocytes
3000
incorporation
disapp
operated
triple
trap
meg
aort
ophthal
cadherin
kits
biol
filtering
nac
##rna
##uation
falciparum
indication
galact
spots
branches
scope
lf
ingr
erk
##ulator
##bitr
traffic
glutath
leaders
organizations
##ofib
colonization
−2
95°c
hrs
wash
gst
fecal
hydrog
promoters
inputs
polysacchar
3h
synthes
sad
duplicate
sera
##idemia
stimulating
crystallographic
connections
##osan
manipulation
acoustic
consuming
##mv
argin
neurodegenerative
##dc
cirrhosis
photon
burn
##eries
feasible
g001fig
pseudo
##d2
inges
##quar
inactive
##xts
##vin
##exin
l−1
acidic
131
ja
##otom
abilities
esophageal
##nes
catalyst
eliminate
##can
##irable
c15
##operatively
vor
constitute
perp
##tia
##allow
lake
road
coronavirus
infect
fulfill
accounted
critically
137
solar
##uled
que
dapi
denmark
uterine
gestation
1986
familiar
condens
considerably
wol
lenti
radial
dg
bad
cyclic
prolifer
scaffolds
p4
french
barc
abdomen
##eps
summer
triton
##pler
flexibility
peritoneal
amin
mixtures
operations
trem
cystic
reveals
tab
scav
precursors
##003
##itum
validate
preventive
bright
##ega
##120
agriculture
heparin
##fall
inadequate
ecosystem
amongst
kinetic
antif
damaged
functionally
perfor
invited
tandem
boundaries
##orf
isop
##ontrol
##ounced
atrophy
afford
subtr
##549
obstruction
132
introduce
##icip
##ience
counc
gangl
kinds
tendency
psychos
platelets
##agm
predisp
155
immunost
potentials
zik
pylori
phenolic
euth
lumbar
parametric
##ble
randomization
violence
anticancer
postn
default
##ime
##health
rated
dysreg
extin
abstract
glauc
neighbour
perceptions
progenitor
homogeneous
gaussian
##opathic
##aran
ea
##aki
igm
inducible
union
phone
##pi
islands
##iff
##ima
molar
aneurys
improves
dopamine
charged
nic
assumptions
counterpar
##bec
aberrant
gag
achieving
promega
220
intellig
landscape
##hedral
graphpad
pollen
aux
linking
##keletal
fused
gem
##ona
excit
names
##nea
fasc
ingred
habitats
##df
welf
clade
enhances
osteopor
keratin
circumference
regimens
olf
glutathione
dramatically
doctor
supplied
cultivated
municip
##vian
defining
bv
ie
empty
welfare
yl
deploy
ccl
1−
exposures
cloning
alexa
mism
psa
qol
today
dv
demands
gol
passage
##rine
bn
denotes
##arded
##emen
displays
staging
gate
133
redund
hold
matrices
gbm
humid
##uing
##ulder
methodological
1st
employment
greatest
acup
pairwise
bioactive
clustered
faculty
adhd
##yster
##hn
##trap
lethal
##pd
york
##oxin
b2
zones
alteration
ensemb
##menting
scanner
assembl
##ey
fda
unst
contraction
citrate
##itig
shed
faec
sarc
thresholds
batter
perfect
glioma
aki
brains
steroid
guideline
starch
dpp
rnai
##burg
modulated
tong
interacts
spectrophotometer
meal
promoted
fatal
##okines
weighed
worth
centres
circadian
tang
unm
serves
cooling
pfs
enrollment
mrsa
dens
immunoglob
contexts
revised
##ania
immunod
liv
grand
atypical
ribosomal
trade
invari
##onitrile
##rosp
jus
##unk
h9
pancreas
reasonable
capital
practitioners
ebv
conscious
mismatch
cyclin
c16
##ading
usep
melting
downregulated
cage
##du
hbs
postnatal
aj
ut
stake
circles
haemat
formalin
ctc
cutaneous
anticoag
##lab
alternatively
pixels
underl
##hyth
crispr
discl
latency
ethiop
lived
consultation
256
##quartile
pacific
gent
##eld
##sd
##opter
entropy
##onuclear
##ococcal
updated
oly
roll
hsa
##ensin
##arium
cambridge
coordinate
walls
##oys
enabled
gwas
2f
platforms
denoted
mcc
din
##agic
operational
centered
interferon
raman
exosomes
website
interested
##fficiently
heated
gad
han
interquartile
##rete
gaba
asymmetric
thr
viewed
##itz
cities
divergence
modalities
council
decomposition
telephone
cochrane
orf
attempted
bund
seizures
##utation
nemat
##oin
intersti
searches
tric
##idel
encaps
alle
##g1
##ishman
foss
##oblasts
mutagen
rms
pdb
sports
##iso
thirty
alumin
##imp
agonist
##imetric
provider
##estim
noc
pipeline
ign
tea
multif
perh
paraform
mating
exclude
gained
similarities
hrp
##ako
uncom
refined
ded
preferences
episode
spear
unexp
deal
joints
009
##amus
positioning
adrenal
proximity
##gtc
stata
boots
choose
cerevis
endoscopic
cha
partly
perhaps
spike
hn
diph
olymp
cow
paraformaldehyde
##link
excision
influencing
##usive
contaminated
glands
confounding
rectal
##oden
duct
train
##riting
manage
##ausal
multiplex
##feeding
remarkable
##rogr
weakness
births
##ggc
larval
##ackage
##emed
australian
cerevisiae
##adj
##ewise
medicinal
rl
oocytes
believe
residence
##organic
##zyme
##oblastoma
v2
squared
composites
lev
fv
actively
usepackage
columns
switching
mm3
pock
ams
foreign
tk
##wa
ibd
mds
degs
nearest
subp
##odal
dots
blank
billion
##iable
tbs
fifth
mitig
138
stat3
fertility
##cell
hop
##map
aq
##oni
mich
cmv
expensive
morning
emotions
ammonium
implants
activator
##anted
hole
disl
cigarette
tof
smoke
personality
habits
dispar
shoulder
##200
phospholip
##opausal
faces
handling
evaluations
hes
gyr
enabling
chance
inhab
ch2
##acg
census
144
severely
reflecting
##work
##so4
cultivation
attributes
scaveng
##class
cock
game
280
sheld
pris
##carb
##ccc
exhaus
focuses
eh
encode
mtdna
##293
remission
orthop
stig
solvents
##activation
##field
syndrom
##itives
134
hypers
corn
anion
transitions
passed
infras
conducting
thrombosis
personnel
ward
elucidate
sybr
##itance
fg
proliferative
cip
m3
##ders
##iled
priority
anaesth
pretreatment
exploration
##acycl
##rig
russ
augment
string
circle
bold
beliefs
walth
##lipidemia
nodules
shrna
1985
competitive
900
historical
exponential
immunological
##ozo
##disci
##axel
efflu
##aded
leishman
concurrent
rac
researcher
randomised
5000
commission
##ocellular
tubulin
##ielding
relies
adjusting
phenol
##dp
##ameth
acs
210
computing
waltham
##roteins
ontology
anis
unus
trna
136
lives
ch3
mammary
harv
crack
judg
##apses
sbp
##osens
##romycin
sized
ole
saturated
jack
hematopoietic
inorganic
##ometr
##oding
##mo
lumen
accompl
preparations
tween
##anti
lamp
occlusion
sonic
rcts
rct
saliva
drying
polyphen
vr
breastfeeding
##db
psychosocial
phenomena
arbitr
##vas
microm
compatible
##ocular
sulfur
seedlings
dissected
##2o3
inpatient
soils
cef
cotton
annually
persistence
semic
necessarily
##idi
pren
chor
dair
apt
vom
kil
acetic
fibroblast
##elles
nanom
superf
imbal
cd11
##panic
distor
orb
staphylococcus
##oxic
receiver
metrics
##uminescence
coa
sheldrick
elegans
compartments
deprivation
##ods
tendon
##cox
electrons
##qol
kir
editing
implies
attending
lifes
nitric
##erson
transporters
ml−1
##otub
wing
hill
idi
afor
rect
circumst
rupture
coval
aware
excre
interpret
reflection
fluctuations
abi
emissions
conformational
gsh
exert
##ergies
accumulated
##usk
plans
assistance
calls
breathing
##ophyll
sealed
solubility
surgeons
disappear
##roid
currents
considerations
##disciplinary
juven
##grade
scientists
##actometer
phylogen
fabricated
ionic
##asi
lysed
cleaved
cytochrome
spind
vc
fluids
1107
piv
essentially
envelope
outlined
deficit
xrd
selectively
dest
concrete
sustainable
##rotective
machin
oxidase
insectic
anesthetized
##ll
p38
instructed
regulations
neuropsych
ecosystems
pronounced
smad
suppl
corticoster
microbes
invent
lasting
periodic
falls
contrary
1f
moisture
angiography
filament
detach
mountain
nhs
slowly
assayed
##sc
polymerization
electrom
anaerobic
antagonist
housing
488
##iffer
pulses
a549
mitotic
spearman
came
obstructive
swim
143
spermat
euthan
tors
correctly
percentile
dairy
ascertain
contigs
##zol
##ville
revision
##titude
classic
invest
legal
turb
neurom
kan
regularly
kcl
pestic
belongs
boys
rif
deplet
##aments
##oxacin
districts
players
##anium
##aced
begin
bmd
writing
##tail
abscess
vegetables
rinsed
meaningful
ia
newborn
leaving
##ementioned
calor
learn
transported
soybean
##ectable
fash
aforementioned
radiological
139
unrelated
deletions
leptin
threatening
haplotype
generates
72°c
chit
confirmation
projection
caud
tomato
septic
gyn
##ranial
##omyc
controversial
schedule
price
stool
dyst
republ
zeiss
waist
comes
eag
merck
cxcr
mexico
##iod
arising
slide
##icans
olympus
##bir
homogenized
1640
##ropyl
acknowledg
sclerosis
stoch
nitr
carot
ldh
porous
balanced
cytosolic
hct
dedic
withdrawal
aorta
edu
preclinical
##umar
ordered
##ellum
marginal
interstitial
paral
−20
repetitive
fashion
specialist
##iatr
ling
kapp
married
tyr
initiate
##hal
wilcox
##bur
compan
book
discharged
autism
recover
pollut
##rp
nitrate
stent
conditional
harmful
##orec
employing
generations
sufficiently
marital
##asy
abstracts
prevents
indig
topics
cxcl
ash
modeled
posts
##ostatic
designs
forced
##fld
likewise
##l2
arginine
chron
capsule
hygi
cited
fragmentation
pam
hypothal
grant
##omere
cloud
respiration
##roni
salivary
##bert
letter
r1
##anical
crystalline
ngs
irradiated
discover
sudden
denote
reversible
willing
##tisol
rhythm
borne
##osarcoma
##uv
broadly
##book
fractional
dividing
bacterium
fetus
endometrial
ment
voluntary
146
clinicopath
tumorigen
aur
##side
ventricle
drainage
massive
reproducibility
ik
fdg
##rep
##operation
##assay
bench
traditionally
discussions
addressing
exploring
indirectly
prey
repress
cure
##ograft
functionality
hub
lg
##si
lncrna
relatives
##bone
conservative
##obac
dul
laparoscopic
letters
substituted
coagulation
cutting
coordinated
ubiquit
bipolar
cd45
leica
broader
signatures
reservoir
los
render
biodi
##hold
rodents
##ji
##avir
##abine
veterinary
##ald
##tructures
##gia
hospitalized
republic
bonfer
##thood
##cy
dedicated
##iseq
190
magnet
##idic
##ocor
pseudomonas
##zy
vomiting
microw
reconstructed
osteoporosis
adulthood
stopped
##ulsion
mec
manufacturing
ellip
148
aster
##ittal
clamp
glu
supple
comment
spray
proinflammatory
18f
destruction
facilitates
##uctase
sides
hyperg
e1
evs
##transm
##cience
chd
alanine
##po4
palli
viscer
confirming
expenditure
olfactory
covariance
clonal
radicals
conditioned
hands
finite
slc
##iol
pull
denv
brach
subpop
triggers
incubator
entit
gamb
establishing
quantities
##ches
fibrill
glaucoma
ortholog
bridge
archae
ccd
appl
##angements
175
beck
##orbent
gar
driver
nafld
diffractometer
acetonitrile
##idden
##osus
immunore
advance
hepatocytes
##band
##atit
operator
engage
transfusion
##oke
##2b
prevented
ethiopia
pellets
wilcoxon
sj
scaling
hfd
pitu
ptsd
bonferroni
alp
ks
##ching
continues
inherent
##gar
extinction
denaturation
arrhyth
hepes
toxins
voxel
surgeon
caucasian
spherical
satellite
flight
opinion
##estock
disturbance
differs
##list
distinguished
modality
selecting
##tm
sacrificed
ok
splice
voc
bring
##ticed
acetone
dihydro
d3
livestock
somewh
##house
echocardiography
plex
ces
cas9
inactivated
##agonal
stabilization
mang
unstable
merg
##cein
142
multivariable
superoxide
tal
register
indications
comprise
searching
reviewers
treg
peroxide
##4a
##neys
erg
cess
mpa
reperfusion
academ
##co3
probabilities
stochastic
machinery
docking
plur
belg
##infected
endpoint
##tish
##inance
serop
acquire
annexin
##dy
bam
tbi
albicans
percept
##attt
ige
biodiversity
141
##inase
kα
schw
trypan
recipient
##orp
scc
fdr
reflex
locom
##tate
fist
##bil
pituitary
permit
disci
wider
moderately
pcs
osteoc
desc
immunoglobulin
##eller
unch
collectively
pathophysiology
leakage
embol
attracted
##nutr
semantic
1∶
muscular
perin
query
floor
##pping
photoc
multil
coinc
penetration
ppi
pressures
accessibility
impor
filling
allevi
tat
##istan
choices
jak
johns
##oyl
planar
amel
tubular
server
chloroform
##asia
##isely
##entary
147
alloy
##roscopic
opioid
##ado
##aterials
immunodef
168
bent
asper
biologically
evoked
##yer
declare
cag
inverted
preceding
cessation
boxes
foster
discarded
unlik
keeping
##jun
dissociation
015
sut
##uron
opt
hispanic
apoe
unlikely
helpful
##nx
cue
1983
bb
##ibular
modify
theories
extending
##ffe
##ranean
230
##utable
mgcl2
##ubation
kras
nin
phe
##ectory
cortisol
disturbances
lond
phon
folding
hepatocellular
##h2o
260
##letes
teams
trajectory
##ymer
pict
accelerated
neurotransm
kegg
deline
conve
integral
circumstances
pten
mediter
curc
l2
4c
grains
colored
programmes
honey
lowering
##aign
lup
turnover
prenatal
duplication
guang
p21
bub
##ynaptic
##plicity
##fluor
##inding
serot
friend
nmol
positivity
##ethylene
genital
integrin
coronal
##illi
rodent
##wt
germination
pari
observer
dermat
##ander
editor
bit
nv
##word
reciproc
##ruvate
##aired
s5
tro
##ivity
sorting
016
foci
methylated
ye
unexpected
nik
##odem
loops
##vive
antitum
claims
viscosity
imper
adp
ampk
165
##nutrition
administrative
executive
plasmodium
antifung
##elve
consumers
angiot
intraoperative
##ap1
bacillus
moved
comorbidity
stationary
icc
notes
glycine
pbmcs
vibration
##formin
advanc
familial
##gone
elucidated
pieces
proof
h12
delta
mens
##eta
rigid
##ductor
1970
modulating
relig
immature
bromide
symbol
scanned
sagittal
##rof
##rogenic
ging
collecting
##ocortic
carcinomas
ankle
ez
typh
assignment
bypass
##olding
017
152
hypoxic
pleural
generic
##ocks
infrastructure
mm2
electroc
sedentary
athletes
fos
breed
urgent
inhal
ligation
khz
glomerular
runs
irb
chel
##enem
platin
twelve
153
##xl
neighboring
recipients
angiotensin
libitum
##agtt
perspec
##f4
kidneys
indicative
aggregate
trail
eluted
graded
##irub
##eted
epi
pie
anatomy
##±2
1984
palliative
doub
reversed
calibrated
moiety
##iation
s16
##reci
huang
tcga
rheumatoid
inference
018
survive
qtl
cultivars
encountered
##ja
eif
##uent
refractory
perspectives
doppler
fun
##ui
physically
exem
##otoxin
attenuation
##ophore
optimize
aquatic
atmospheric
probable
fuel
##rontal
representations
campaign
154
cros
answers
facilitated
##openia
149
156
illustrate
hek293
inspection
sputum
lifespan
escape
##cycl
##ran
hallmark
intracranial
##iratory
soon
ire
##place
allocated
nn
affective
dichotom
neuropath
federal
sma
porc
rcc
saharan
intermitt
undergone
thaw
played
luminal
subd
adipocytes
metformin
##pal
pregnancies
ee
helps
##tification
ald
backbone
immunostaining
somewhat
##umb
atlas
320
incid
kle
profound
chitosan
periodontal
##esium
conditioning
reductions
deemed
multis
##abolic
vm
weather
engineered
unusual
##essive
cds
metallic
acceleration
##idge
dishes
cdk
london
bmp
regime
spanish
rsv
dispersed
##iber
admissions
##actant
semicon
mononuclear
triglycerides
##dd
seizure
salinity
flowering
ambig
guar
illustrates
1n
ala
##ague
dod
implanted
ultrasonic
##ris
##atinib
cages
arrangement
precisely
##fficiency
aliquots
braf
eds
pharmacokine
supplements
paul
paid
determines
tv
utilize
##fish
##otides
dominated
abiotic
definitive
transportation
nct
tlr4
lymphoid
##tiles
##xs
bruc
catalog
ali
cannab
##oxygen
odor
kappa
institutes
##atidyl
platinum
##atosis
interviewed
spindle
e3
injured
dilutions
helic
014
tone
looking
sulph
graphs
shapes
##apt
migraine
flavonoids
downregulation
anthropometric
##tise
creation
##inic
sheets
noneth
him
env
scri
superficial
nonetheless
consor
relating
oxidized
##aching
##idazole
accessed
gri
chemokines
poul
impedance
tank
hypertrophy
##ava
undet
herbal
conduction
s6
ethylene
felt
dielectric
political
dutch
tumorigenesis
adenosine
leukocyte
##tinib
##3b
avoidance
freed
##orecept
cw
025
plaques
overexpressed
##bp1
solely
##cttt
lew
##plastic
esophag
hepg2
mediterranean
whereby
remarkably
##crnas
epic
antisense
##je
1500
##ysiological
skull
conflicts
##osyl
candida
anast
##orh
hygiene
placental
##nals
sevent
emphasis
allergy
##flur
##133
##pathetic
trizol
##ethylation
cysts
gynec
malays
cca
nigeria
ectopic
##ilis
consolid
martin
niche
acupuncture
##iosis
##holders
flor
neighborhood
metagen
##itated
visceral
brought
##soft
capabilities
##ami
consumer
depleted
insert
downloaded
ultrason
acyl
indigenous
pick
clarify
obstetric
th1
mets
monolayer
synov
hong
pax
characterised
eat
permission
pocket
pathologic
declined
dioxide
cats
nrf2
ether
##igible
158
approximation
titers
inos
h10
##static
surprisingly
pdgf
hereafter
##vac
responded
##oplasmic
frail
desirable
arranged
##olone
##tir
##ibilities
vt
dissemination
recommendation
ran
coastal
scatter
##ete
oils
##aked
glycoprotein
talk
4d
music
wallis
v3
##acrylamide
##tz
cone
hatch
journals
eagle
formulations
157
yielding
ophthalm
gsk
sati
##ipot
kcal
flo
biofilms
attributable
##my
john
haplotypes
360
varieties
##verty
nause
##restr
##0053
syndromes
2nd
limbs
experiencing
##lastic
glial
derive
epitope
antifungal
anomalies
##asp
h8
fate
drivers
inconsistent
##mscs
nested
ssc
trafficking
cours
impairments
kp
causative
favour
thousands
##atgg
chaper
catar
##x3
bootstrap
employees
bid
trajector
till
microsat
##olate
leukocytes
imaged
##zhou
##iner
poverty
trajectories
curv
accumulate
taqman
dulbec
cook
monomer
spir
mtb
install
bacteri
refractive
latit
phant
##aliana
chambers
ili
rum
flap
shifted
ration
tensile
##partum
##5a
sociodem
aes
##eq
stratification
official
##eles
##floxacin
cigarettes
micron
transcriptase
stirred
hydrochlor
159
hormonal
heavi
##oti
mediates
151
leave
junctions
##orub
balb
intraperitoneal
song
##ali
highlights
unpubl
jiang
holl
intim
inventory
routes
nausea
4000
trunk
immunoprecipitation
##116
##heim
##flurane
deterioration
019
##rex
mort
magnesium
differently
##ctgg
modulus
tightly
spatially
##endicular
masses
inability
expectations
pars
unilateral
combine
750
takara
rainfall
dulbecco
advice
immunosuppressive
appreci
bones
##ented
initiative
acuity
perpendicular
counterparts
##genic
electrolyte
hsv
seaw
bead
##otoxicity
##otrophic
##isk
humidified
cup
tnfα
chemotherap
documents
draft
dun
iga
013
mining
norway
entirely
##ropri
eosinophil
tach
pluripot
##ovs
nation
mechanistic
177
contral
##opyr
going
selen
krusk
##keleton
inapp
striking
immunotherapy
debate
firing
flowers
investigator
nag
biotech
responders
leu
coping
entr
poultry
descriptions
quench
optimum
inset
farms
wb
torsion
partition
##ries
illumination
avian
##rates
hazards
##ailand
esi
cd34
bdnf
stakeholders
ban
challenged
fh
wel
deion
caffe
constituents
defective
thailand
##elli
intelligence
sav
##fv
xu
ease
droplets
oncogenic
radiographic
contribut
##ughter
mediating
perceptual
placenta
attitude
thaliana
012
##ifferenti
##ria
supers
accommod
psori
classify
lock
hypot
##ticular
dysp
flood
nicotine
frank
exercises
tear
freeze
inherited
excel
attended
mutual
##ela
contralateral
##gag
degraded
village
bull
saint
nest
palp
roi
##gd
##itr
canadian
duoden
sporadic
sacchar
sarcoma
acceptance
inappropri
kc
recycl
unchanged
stretching
interfere
recons
roughly
##iling
chemokine
unpublished
dab
places
167
hidden
176
restoration
pyruvate
tukey
rhod
request
sio2
topology
puf
nes
−80°c
properly
s160053
pharmacy
parietal
##rus
checklist
forests
spaces
##yan
adhesive
##elin
atpase
notion
reflux
irrevers
facilitating
arbitrary
testosterone
##imaging
parasitic
##wood
mutagenesis
##ardia
t2d
closer
substitutions
antitumor
lid
analyse
diamond
digit
pec
##bio
cooperation
indoor
##opus
colitis
conclude
transpos
potato
concerned
3rd
apparently
skew
implementing
interactive
lymphatic
exhibiting
cocktail
h1n1
debr
instruction
brazilian
179
orbital
proteasome
vertebral
##vasive
mm−1
rejection
trypt
autosomal
dispersal
alignments
prok
modifying
gonad
afm
ranked
suffered
##iest
invariant
dnase
lem
occupation
adam
##afts
jur
latin
gard
originating
cred
##omerase
allelic
courses
forty
preservation
syringe
##etts
belgium
iop
teachers
##ropathy
0000
hemisphere
##plates
antenna
titer
uiso
angular
retrosp
##iana
##t2
sociodemographic
pictures
graphite
nick
##1b
stabilized
owners
diaph
166
##umps
antidep
##arts
hen
technological
silico
β2
osteo
say
offic
##aturated
bird
##cl3
purs
162
characters
therapeu
elicited
subcellular
stic
hemodynamic
##wr
shim
naoh
workflow
##urable
sweet
kenya
hmg
topical
##asting
##yroidism
fruct
integrate
##f3
unpaired
##apsed
monocyte
sorted
##gcc
secondly
rhin
germline
192
antih
catch
versions
1982
catalyzed
chemil
##odic
annotations
coral
aba
imbalance
transparent
programmed
oscillations
aluminum
constitutive
ionization
compact
tags
immunodeficiency
cz
##tron
reductase
164
173
entities
ovary
projections
eliminated
arb
lox
cd14
##iders
npc
##akers
##keep
ingredients
oz
##drug
oxford
wc
expertise
biased
propensity
##kb
inversion
simplified
battery
databl
##a3
zeal
550
##isson
microplate
163
asperg
introducing
postpartum
porcine
contacted
wise
flower
##irubin
menstr
scheduled
##anal
epitopes
killing
t0
structurally
kruskal
##1111
s−1
guarant
##arith
cooled
lignin
sparse
visualize
kernel
enhancer
articular
dish
illnesses
terrestr
protr
##ocys
texture
antidepress
hypertensive
polyacrylamide
ew
##inea
punc
vanc
proteome
foxp3
smoker
axon
korean
tfs
preferentially
178
avoiding
##tidine
freely
dispens
visually
publicly
purple
ensuring
crosslink
pink
##ifies
zealand
rpe
##ionine
##obenz
blots
volatile
autonom
proteases
bcr
##rod
thoroughly
sto
orders
accompany
icp
british
pci
##ustration
perox
##nm
plateau
outd
##pson
cd44
##yi
orally
vertebrate
prophylaxis
incorrect
transcriptom
italian
immigr
cylind
##2c
senior
##entricular
fertilization
juvenile
##uloskeletal
mcp
explicitly
email
antioxidants
anonym
5b
ended
##asone
solving
likert
notable
##arthritis
fi
exclusive
intermittent
civ
pointed
fell
sie
logarith
clinician
##ucl
incorporating
lactobac
sole
truncated
tongue
##lc
hyperglyc
doped
exploratory
twin
dramatic
diminished
mms
neoplastic
nations
labels
gelatin
doing
willi
pathologies
dbp
dick
originated
pivotal
margins
trif
excised
##acetic
latest
titanium
divers
##jo
enlarged
paed
fis
nerves
##elle
huge
bax
##anyl
micrornas
said
##105
agonists
pools
##omyces
lysate
##abd
fo2
constants
brca1
musculoskeletal
##ser
thank
prp
##urbed
victim
integrating
origins
homes
quantitatively
serving
jose
messages
cranial
011
bbb
cerebellar
##inos
malform
microwave
autoan
##ulture
##entic
suspensions
reinforc
poorer
##encephal
transducer
##kes
jackson
obviously
5d
multip
##ogle
engaged
##ellulose
##osh
poland
physic
fluoride
169
starts
fev1
simulate
ctr
##ocin
anastom
##len
schemes
catalysts
worksh
##west
##ialysis
##xr
##rogate
hundreds
axons
retrospectively
telomere
##itabine
##onine
funded
h11
endothelium
departments
debris
##ophen
##osperm
evaporation
yu
sanger
energies
##itudes
disulf
##inator
th2
gan
splen
##omatous
dichlor
acclim
174
ecology
flexion
buff
idiopathic
grades
hyster
elicit
diameters
dha
inhabit
circuits
##aemia
spreading
hv
curcumin
relate
conference
##orubicin
quer
cassette
industries
##130
accid
serotype
screw
gv
heterod
mj
distinc
modest
richness
ay
resusc
c17
jm
confined
adherent
dosing
notice
tibial
schist
consortium
classifier
patches
deionized
##ett
entries
correc
##obs
arrival
absorbed
wean
ij
collections
gradients
friends
biocomp
##nps
detrim
rising
adoption
percutaneous
antenatal
aspiration
rectang
imposs
synergistic
presumably
plaus
competence
discipl
024
##isher
symmetric
iodine
coherence
harvest
prefrontal
infertility
immunogenic
ageing
dar
##luor
zikv
##edia
g002figure
vim
deleter
−3
von
310
1g
phosphorus
streptococcus
adver
estr
suture
reprogr
ecs
freedom
9300
##bow
##olet
nanod
##ulant
##acl2
172
academy
##olecules
eph
mail
detrimental
hpa
addiction
fibre
warr
axonal
giant
ingestion
worked
k2
herpes
phosphatidyl
ome
##onyl
lesser
##tip
glucocortic
neuropathy
amorph
bod
proteomic
##irc
pill
revealing
mock
morbid
contextual
bioavail
##aque
##asal
xl
resultant
bending
evidenced
sab
steroids
##elect
provinces
##ev
stepwise
linker
deleterious
##ayers
taste
tca
jejun
185
endpoints
worker
singlet
##oxif
vd
vertebrates
timely
##odil
161
vaccinated
curric
update
organizational
perinatal
##erated
src
photosynthetic
##otyping
##ony
suggestive
neonates
rescue
canine
vortex
hus
femur
δρmax
vapor
##ximab
##zi
reaches
δρmin
contour
##acycline
nh4
horses
irresp
##ck
acetylation
projected
imagej
##ifiers
##aac
johnson
270
th17
macrom
bg
successive
robot
breakdown
##adesh
robustness
##zu
instances
mci
dk
constitutes
##isin
informative
parasit
##benz
normality
feb
##ometh
farmers
##affected
jnk
store
attacks
wn
lies
alive
style
stigma
sugars
learned
##ype
permeabil
##win
##rowth
chemo
swedish
carbohydrates
cary
phosphoryl
##process
##urt
franc
vigorous
aeros
mcs
spontaneously
freshly
initiating
spanning
##arynx
discom
disrupted
terrestrial
##iens
225
stone
minority
incorporate
vulnerability
##arean
##etics
expectancy
afterwards
phylogeny
shaking
turned
##ichi
progester
sport
algae
##enoids
slower
##101
1981
fcs
obstac
tsh
polarity
nanoparticle
appoint
yr
##ao
##borne
trab
associate
compositions
adopt
edition
##birth
saw
chemically
paste
25°c
loads
##atcc
##aag
meningitis
carcinogenesis
restrictions
msm
biases
microsoft
responding
retr
efflux
huv
microrna
progesterone
lept
unaffected
aav
uncontrol
##itinib
google
repression
calf
freezing
entity
aspirin
visited
inappropriate
lakes
##ylic
##omod
danger
feelings
cooper
atlantic
##yal
ich
malnutrition
##zes
fibrillation
o4
##yne
touch
coul
pulp
geo
secretory
dates
cephal
microflu
##ethanol
uganda
supportive
topological
cct
clinicopathological
helical
innovative
ratings
innovation
dysregulation
##opy
mycobacterium
companies
##asm
nonin
literacy
bim
##ashi
polarized
lod
lute
wounds
##osidase
pier
keyword
oven
gaz
##iley
rho
δh
cof
##140
programming
pollutants
managing
synapses
kj
digestive
scarce
cacl2
##organ
tons
catech
androgen
cron
##obacterial
x2
necro
biosens
uninfected
##eptides
##004
holding
testis
pores
disagre
##ulmonary
##iles
collective
caries
swab
##ygd
colonic
olive
missed
##ovir
aspartate
maximize
##ario
nox
coex
amplify
recessive
daw
##κb
deleted
195
artifacts
dq
landmark
proxy
mrs
ligament
aminotransferase
##ersonal
rational
priv
##oreg
pest
hap
tunnel
hits
b6
rationale
6a
205
tot
dislocation
trimester
redundant
austria
rej
affiliated
##eption
aaa
orthog
tcm
##odegrad
prime
stressors
##life
qs
strictly
discomfort
opposed
convert
##aminergic
tp53
kt
##una
glycosylation
genotyped
184
dbs
declared
fried
villages
overexpressing
glycolysis
scavenging
segregation
cytosol
##eled
anthr
printed
dss
##retro
##iao
adolescence
stirring
##enib
##md
scot
acceptor
##ostat
oocyte
##atonin
gcs
intercon
termination
s100
aneurysm
impossible
bever
##amed
##erman
##hydr
##bits
sitting
##ception
reticulum
rbc
h6
salts
##astatin
##ower
heterozyg
pvdf
dent
##gene
follicular
wbc
##room
dako
playing
lupus
checkpoint
##psia
##arial
exactly
##uchi
marks
stimulates
eigen
polymorphic
##asic
##wid
business
problematic
thinking
ix
pose
superfamily
crisis
pir
##keys
182
amelior
gyrus
amygd
excited
lasted
monomers
fungus
occasionally
cerebellum
##anding
##role
blockade
facing
triglyceride
lean
irrespective
antiretro
##osphere
coff
iodide
cel
disordered
packing
##com
typing
cooperative
want
immunoblotting
gat
multidisciplinary
siem
cardiomyocytes
phantom
repeatedly
neuroimaging
responsiveness
yam
doxorubicin
deeper
##urations
grading
##amethasone
shot
##kt
easier
pkc
pon
cytoskeleton
golgi
counseling
imported
##ball
nlm
melatonin
resili
drawback
##osacchar
doubl
climatic
conjunction
deposits
rabbits
hope
bca
204
complaints
polyn
##quine
##artz
quarter
hed
##play
amorphous
transgene
excretion
computation
cleaned
compromised
cows
1200
##oul
jones
compensation
##iologic
hay
##amming
fifty
possesses
lc3
conductance
hrqol
negligible
swiss
poisson
drawing
##width
immunocomp
171
alternatives
killed
t002
underestim
viet
xp
nose
sq
microtubule
gated
basin
hydrophilic
conges
advertis
intellect
medull
priori
##olia
emg
mitogen
narr
##oler
peptid
supervised
##otubes
bioc
html
stroma
188
bilirubin
joining
ammonia
reconstit
strengths
carn
##imus
##oo
meter
finland
##rogenesis
crystallization
ubiquitous
##jiang
midline
##echanical
##print
deduc
##ional
##etrix
##ulators
pale
##hao
wireless
na2
##param
econom
##cales
hox
solved
texas
##ushing
deoxy
prokary
snap
relief
cuff
curative
ascorb
alkyl
186
sz
holes
wavelengths
##tebr
develops
##opolysacchar
rose
sheath
##gct
kary
serological
1x
mont
stations
##bilical
apps
##thing
183
got
intens
##oge
poison
esc
lie
crt
ors
eukaryotes
caf
collaborative
chap
biogenesis
mirror
##enoid
##yx
crossing
transforming
dpi
upr
gastroenter
nir
madison
sit
radiographs
##rectomy
equilibr
##itaxel
photographs
mcl
dotted
partnership
synovial
##icc
gauge
##rology
electrostatic
##py
feeling
023
progressively
##103
heavily
hypothesize
pm2
abortion
confid
turkey
isra
autonomous
entering
2500
mps
worms
necrotic
##unctiv
pyram
polymeric
labour
filaments
hyal
siemens
medline
jc
manifestation
compute
synthesize
immobilized
benchmark
euthanized
phy
proteomics
hydr
vocal
##neasy
cm3
tar
amine
80°c
##entric
psychology
epa
##ications
discriminate
plain
malaysia
##rc
arises
nsa
##icate
mucin
delays
progenitors
##lamyd
argued
formulated
residential
lactam
kong
##adt
sphere
##ny
breaks
##forward
1975
corresponded
vesicle
mediator
ticks
##rost
nets
summarize
methodologies
stably
satisfactory
tms
electrocardi
angiogenic
ligase
##±3
serotonin
excitatory
highlighting
##ois
connective
hypo
ics
developments
pathogenicity
minimally
amd
chickens
dendr
ftir
missense
kol
differing
replace
##etrical
sph
macular
priming
glioblastoma
##etical
navigation
dust
affym
antiretroviral
amplicon
tailored
214
anticipated
196
ureter
predicts
##worth
closest
pacl
efs
formaldehyde
bangl
biliary
beet
irreversible
transplanted
dihedral
##iently
##tl
rapamycin
##mi
cmr
ccc
curvature
resolve
defines
reality
##enchyma
##irection
cleaning
##ragm
##cribed
s1a
warming
resilience
##idia
aggregated
181
bos
##pecies
710
##oviruses
##udi
##yel
##erate
##arboxyl
answered
##dt
gradual
aiming
diagnose
ensemble
affymetrix
hydrogel
##adays
flash
autoantib
ketamine
nowadays
click
fw
##yles
spacing
ureth
orbit
##imetry
##1r
sic
designing
512
nu
##tii
lithium
##lv
neutralizing
surrounded
1979
baby
horse
##gfp
scattered
208
shoot
bees
elabor
potency
chloroplast
noticed
480
stems
homo
repetition
ideas
scd
sympathetic
litter
opened
analogue
##v2
heme
kg−1
conjugate
mosa
222
military
flanking
insol
206
cq
elution
340
oligonucleotide
implicit
203
oligo
ebi
determinant
statements
##actors
legs
documentation
macroscopic
neighbouring
specialists
cerebro
chlorophyll
theor
dexamethasone
prompt
realized
##ece
somat
##emporal
##n3
##car
asa
prednis
##me3
dal
chlamyd
pdf
calcification
requested
caregiver
conflicting
ejection
illustration
hung
satisfied
endoc
##adish
weighing
##ighting
wealth
##ilton
organisation
freshwater
intellectual
biosynthetic
fistula
sounds
osteoarthritis
waveform
tended
quartile
interfaces
hyperplasia
##osom
era
##urf
erk1
##kins
midw
theoretically
##elia
paclitaxel
prove
convenient
hyperm
##sen
##achi
##phrine
##cient
vietnam
pth
xanth
adequately
cohen
altitude
disulfide
##graduate
##onectin
starvation
subtil
##oradi
paediatric
asymmetry
##tination
cfs
brand
tgfβ
appra
fle
##ensitivity
consciousness
anchor
cataract
dyes
divergent
biodegrad
guinea
cet
autologous
hinder
chow
027
##n4
##109
sirnas
corrosion
veins
metaph
fe3
##ogroup
assemblies
corticosteroids
pss
ultrasonography
wit
traces
smallest
##patients
##eria
swimming
carbonyl
displaying
cardiomyopathy
60°c
##aches
ventil
retard
ei
187
hyperglycemia
accomplished
microstructure
inhalation
strands
harboring
wastewater
transloc
swine
altering
jp
log2
foam
lectin
elife
orthogonal
presentations
##metic
clarity
follicles
bioavailability
immersed
buck
umbilical
mca
axes
tnm
begins
clients
traps
##mut
triggering
intubation
dropped
horser
operate
maxillary
quasi
seasons
handed
anthocyan
balloon
cnv
svm
message
convergence
flasks
temporary
bell
ups
covalent
reciprocal
elemental
##fulness
rays
194
##apolis
f3
effectors
reproducible
##imeter
##asty
##itan
antagonists
650
223
mandibular
kat
##atins
ancient
nadph
resuscitation
##arity
herbiv
gingival
##encl
physicochemical
##aya
horseradish
convenience
20°c
mdd
insufficiency
##flav
gond
glycol
dyslipidemia
##orum
vasculature
leadership
atherosclerotic
ih
tuning
pakistan
##gin
##zz
friendly
subfamily
##illing
n4
nanow
cil
soph
printing
configurations
##iterp
cec
polysaccharides
tregs
buc
##0000000000000000
wal
connecting
alloys
supervision
granules
sexually
extremity
waiting
carbonate
diffus
##ionic
intermediates
workplace
##acs
lacks
perkin
##104
264
leucine
cronbach
sequentially
lipof
koh
polyethylene
surgeries
##c3
colors
cave
3e
harvesting
southeast
shallow
interfering
pelvis
carl
competent
##iments
##bred
citi
prioriti
##arma
tends
descript
unsu
##enger
##pling
repos
##ystall
rounds
fum
packaging
nonspecific
##bors
alcoholic
##wich
##ulsive
##omed
microsatellite
discrepancies
zhou
interplay
##ifera
189
tips
bread
unn
accompanying
toll
sla
independence
parenchyma
tolerated
fibrous
tolu
t7
##amers
##afenib
contempor
immunosorbent
autonomic
wrist
##amins
##ozoa
puncture
##gat
immunomod
matlab
##ogaster
##usted
mercury
ej
pater
disk
hemorrhagic
magneti
ghana
rights
rom
releasing
paw
rw
dodec
papill
uncontrolled
resected
launch
uncommon
js
##125
##pps
reserve
##b3
pretreated
suv
responsibility
unip
eur
bee
tried
transmit
authentic
refine
tanz
upl
pom
028
##km
observers
mitral
helped
languages
berg
oligonucleotides
makers
##osum
##alytic
##nan
fuc
spores
summarizes
##urnal
firm
strongest
expanding
aryl
verification
202
wheel
dere
encouraged
ancestral
hamilton
##aq
##onics
drops
therapeutics
transp
exploited
drift
norms
inhabitants
##requ
##enses
export
progeny
pbmc
isoflurane
bcg
420
vent
1978
##olymer
confluence
depressed
##aceous
pms
##uric
blo
clot
026
##atine
vehicles
lactic
##edes
bj
adiponectin
mers
##epith
kel
vegetable
##odia
hod
##ensitive
disabilities
speaking
##opia
authority
methionine
schm
offset
managers
022
abnormality
##brain
##berry
outputs
corpus
δc
##arum
mega
##actin
iterative
amygdala
##oplastic
cms
apo
##odialysis
serotypes
nikon
meetings
creates
##reen
goodness
2n
authorities
isotope
replicated
migrate
histologic
chemotherapeutic
rdna
converting
trabec
hearts
mot
##idelity
##1−
psoriasis
arous
postoperatively
prisma
williams
bact
scalp
##fo
##wi
##growth
connect
g4
medias
newborns
##fu
qc
hypothetical
miller
synonymous
dehydration
distinction
benzene
secure
±0
##p4
dependency
hexane
##chi
dtt
##otoxic
organelles
sterilized
##tian
##ardial
zhao
km2
pparγ
foraging
endoplasmic
surveyed
reperto
##inates
##stem
geometr
effusion
mention
emerge
shrink
coffee
atc
chitin
bark
pun
uterus
confounders
miner
adc
succin
motivated
##iaceae
sexes
mesent
##rospinal
coming
ranking
gathered
parp
nitro
dopaminergic
invertebr
tablets
##uzumab
215
jac
probed
gpcr
##umental
193
nap
ribosome
unin
irrigation
##olor
ggt
aper
##ometers
restore
cerebrovascular
1r
proline
enlarg
##iration
merged
threonine
##ecess
breeds
tss
##adiol
aspergillus
##izers
undes
sao
surrogate
##fly
##ecan
tablet
retain
##odend
templates
referring
eleven
instant
petri
cuc
wildlife
intrig
japonic
1960
feces
##grav
vancomycin
##olars
proteolytic
lysosomal
plausible
scaled
##cetin
cardiop
##ticals
realistic
nodule
venom
accessions
hns
achievement
gains
suppresses
chik
erythrocytes
exceed
216
taxonomy
piper
##bia
passing
nodal
earliest
bangladesh
##isal
violet
histogram
broken
kw
citation
##mond
035
mend
games
portug
##brids
swabs
sphing
snr
##ht
adduc
branching
##ocycl
endoscopy
greenhouse
##folded
##olith
dre
otus
spite
disrupt
mimics
##aggg
cerebrospinal
matches
cd16
biop
fidelity
kal
##eman
##edema
px
##onium
aun
aeg
gently
photorecept
rubber
nanocomp
arsenic
##gcg
fuz
agencies
x1
##157
tour
##ophysical
salv
things
hydrocarb
##enh
graz
monte
painful
maldi
##i1
##iotics
taxon
pmol
snow
lactobacillus
preprocess
perforation
bronchial
inspired
town
interconn
##zens
electromagnetic
renewal
pcl
bra
7554
committees
myosin
##eterm
##bound
lamb
cnt
##phosphate
analogous
frailty
vap
##nn
hypoglyc
##rid
grape
legis
##mar
tga
sirt1
uniformly
bart
0°
mts
h13
encl
ova
periphery
≥1
##umann
identifies
##icul
brack
cryop
inheritance
##azolium
##axial
fluorescein
abl
##ido
occupied
##eno
dysplasia
sgr
electrophysiological
silk
occip
retinopathy
attentional
cml
hyperc
striatum
melanogaster
completing
remainder
##kl
senti
lea
ecc
feet
encourage
##icon
pathophysiological
α1
reform
zhu
explaining
insoluble
neurologic
neoplasms
cloth
g003
intu
prospectively
454
##yday
##oplasty
##ushed
osmotic
photosynthesis
exceeding
placing
221
290
comments
fructose
amplicons
resis
4e
##ortal
##che
sacc
descending
pitch
recre
cpr
##jing
bandwidth
unem
ards
##icious
une
##econd
everyday
oblig
subsp
f4
antihyp
omitted
mosaic
029
chemot
avoided
subtilis
375
accident
microvascular
appropriately
erad
380
##icidal
americans
##ila
##trate
iliac
performances
papillary
lor
harr
224
94°c
afl
subcl
212
encounter
298
microfluidic
argue
cohes
ferri
fsh
inacc
protons
packed
sister
historically
##urium
tolerant
conjugation
ready
spheres
dissolution
##ptic
##arbonate
021
##optera
herc
1×
initiatives
abol
deacet
try
rigorous
##ativity
extends
sial
holds
curriculum
reliably
##s1
anter
father
mant
##amel
puber
##r3
t002table
menstrual
vo2
##ilson
1007
instrumental
zoon
pcdna
191
##dv
seawater
choosing
protecting
blockers
nasoph
##met
mutational
vestib
##eum
discrepancy
hered
##orted
##produc
s16005368
ductal
hots
218
σ2
piezo
investment
##at1
tnbc
ganglia
ton
paths
friction
temperate
urg
##d3
malt
##irectional
cores
##180
##ifferentiated
srs
pesticides
microbiological
dickinson
microarrays
330
manager
exempl
thickening
piece
##acil
nearby
gbs
ibs
brad
##olab
regards
histopathology
##imension
virtually
gil
30°c
neglected
applicability
lanes
codons
pah
glp
caudal
hematological
##obut
multidrug
wine
axillary
gravity
symbols
207
splenic
18s
sensation
209
g3
pcos
##nary
ncs
tibia
##iper
burs
tay
##oresist
beams
##odontic
directional
##onder
##ronectin
030
clades
constraint
interpersonal
sett
##oscope
hernia
dehydrated
microd
backward
handle
encephalitis
depolar
duplicates
##del
dfs
dermal
##owski
markov
ao
burk
doping
supine
regenerative
bior
portions
photons
distinctive
intriguing
unex
relie
ory
brdu
suited
lastly
commitment
ellipso
restored
energe
##phosphory
perturbation
211
transcriptomic
217
##mr
min−1
volumetric
hrv
conjunctiv
leishmania
##aviolet
##chart
throm
incomp
##choline
##ographically
nanodrop
homogeneity
mandatory
niv
valley
cscs
##gic
neb
polys
##idis
ultraviolet
intermolecular
testicular
prescribing
belief
inoculum
##onuclease
##otemporal
flows
esr
exome
ipt
verb
originate
damp
vh
5°
##acat
beds
wuhan
##s2
brass
phages
confidential
##beit
chimeric
diaphragm
dj
032
mats
biotinylated
myeloma
multid
chondrocytes
nak
parity
valence
pge
##123
unfav
bats
bolus
##oxifen
##ankton
##iatry
tent
worsening
caffeine
oes
appeti
phagocytosis
beckman
introns
maf
cryp
##rical
unemploy
respondent
unig
alongside
analytic
postulated
gdm
simplicity
amide
##106
1990s
osteogenic
modular
reprogramming
indones
lex
perioperative
nw
elective
labelling
approached
h2a
straw
follicle
roughness
1977
ascending
##ipping
##amph
tuber
pka
thrombocyt
audio
analgesic
ahr
pdac
tanzania
unres
311
229
representatives
psychosis
myocardium
constitutively
elast
##ophan
##amen
no3
##ylate
##quis
nominal
unid
micrograph
stands
situated
epidermis
##bt
albeit
longe
counterst
infin
##ropor
aus
ptc
reversal
c20
kyoto
undergoes
fort
suicidal
convers
israel
jaw
continuing
##galy
migratory
pyro
sts
##adm
##eas
psi
econ
cations
conductive
privacy
5th
##etary
stores
hybrids
coat
##ordant
plug
skeleton
ari
##ancing
grating
##yrin
ligated
dimers
precipitated
polyc
##atrol
omega
036
##uma
nomencl
##lips
barley
mabs
##keeping
specification
fossil
vitamins
033
raise
prompted
transwell
usp
transduced
##blast
keratinocytes
polysaccharide
refuge
semiconductor
subpopulations
ulcers
##ctcc
segmented
dir
informal
erosion
apple
exceeded
condensation
##aind
##aris
accumulating
034
##but
forec
##cherry
##veratrol
surfactant
wax
viewing
rows
metam
troph
##d4
##ecton
ultimate
camer
infarct
modulates
pulsed
1976
pole
cea
interrup
averaging
213
consul
219
amplitudes
sectors
weakly
038
manufacturers
news
037
diaz
exit
clay
stainless
l3
cubic
tape
concordance
##l3
##nc
screens
hydrochloride
##hu
chair
uniqu
rash
disadvantages
couple
0002
ancest
##lan
yi
254
reasoning
heads
gal4
h14
##osides
##obe
405
subtle
longevity
##e−
dominance
cochle
ipsilateral
burst
gata
myofib
immersion
rick
detox
autops
transferase
overload
pancreatitis
expectation
graphical
osa
dnt
dorm
proteinuria
pdms
restraints
combines
shut
wake
monkeys
frameworks
counties
outdoor
##ophores
exerts
reass
hardware
strengthening
wanted
osteoblasts
embase
carp
iuc
erbb
##urin
seques
vimentin
watch
##acterium
execution
endocytosis
fibres
minus
preserve
keywords
biotic
##rolif
client
antigenic
##acag
hsc
gill
adaptations
##feld
attribute
duplex
##force
ancestry
##holder
##reek
jam
##plasty
artem
##avidin
auxin
##rofloxacin
periodon
unnecess
career
characterizing
horn
##uistic
α2
##xx
muller
##adjuvant
coherent
##endocrine
emphasized
##lyl
amaz
addresses
##acic
pda
licens
sediments
##e1
infiltrating
resveratrol
hat
latitude
straightforward
suppressing
gpr
contemporary
juice
lipopolysacchar
replacing
##otropy
##idene
##iciencies
384
tunel
rearrangements
homologs
##uns
resorption
nephropathy
oncogene
helices
##500
##atric
##eptic
##nand
chemiluminescence
4th
clark
##esh
##thromb
thom
520
anatomic
lobes
definite
titles
mah
lipofect
influx
peroxidation
csa
dissol
rps
##glu
surviving
afp
cxcr4
fad
ubiquitination
moral
readings
calling
gfap
impacted
##iax
outline
chiral
liposomes
linc
365
dealing
capsid
extrinsic
pj
readers
wk
lymphaden
b3
dlb
pierce
prophylactic
weaker
damaging
cope
k1
faced
045
coal
formic
##uy
quercetin
diploid
##eri
physics
clostr
ais
##rological
cd25
degenerative
denti
collapse
packages
becton
mitosis
polyphenols
gift
possibilities
antipsych
abb
sophistic
costly
##ulas
neoadjuvant
##hp
bicarbonate
totally
##enberg
thanks
dyspnea
grew
dol
cps
hydroxide
##vinyl
shig
vivax
epp
hunting
arres
minerals
##igenic
laws
lewis
ganglion
039
ireland
##worm
031
##ram
wilson
atax
matrig
##ococ
##type
recycling
stabilize
enum
usefulness
erythrocyte
048
hercules
delivering
bundle
aller
helper
evolving
cocaine
bun
unexpl
pq
hydrogels
nil
inversely
mcr
##bles
0005
tryptophan
tcc
##ropol
uro
drinks
scene
transiently
##oproteins
destro
040
##122
graphics
stern
##sup
pine
voice
overt
ineff
aerosol
nanostructures
##uff
##gtg
matrigel
insertions
charts
constantly
quantifying
##ensen
##aat
analogues
##ilden
##crna
linearly
primates
chief
certified
238
259
ampicillin
p65
portable
shi
monoclinic
xenograft
##iab
illumin
##tructured
wein
##viruses
##vie
isother
diphenyl
overd
##imensional
recognised
##δct
90°
hook
lrr
glycogen
vf
ffp
epidemiologic
fes
histologically
##ethylated
##amicin
neuropsychological
##inescent
dilated
meals
arousal
##cttc
cheng
pcc
tsp
##nh
pedig
tamoxifen
##enal
cd11b
observing
falling
##agland
ry
methylene
poses
washington
g002fig
enrolment
gpa
##urc
cannabis
david
economy
##e2
235
jump
mmse
cryo
grafting
danish
cylindrical
mg2
layered
prosthesis
##alg
shifting
dmf
##isup
epoxy
ua
perfused
mip
kur
##omorphic
228
296
##low
lipofectamine
archives
1128
prescriptions
##itories
reactor
immobilization
endocard
maze
##ucleotide
gaze
mek
standardised
fulfilled
hsp90
##oned
mete
posit
##base
extrapol
nlrp3
cytometer
explanatory
advoc
##itate
cbs
##ender
g−1
##box
##ugg
noninvasive
mcherry
r0
p16
capacities
porosity
estradiol
semen
##ogether
measles
accelerate
meoh
rim
crossed
flowchart
##vit
homa
ica
##ourse
ceramic
protects
survived
thirds
anderson
gating
stressed
osteosarcoma
##126
gases
differentiating
orn
##epatic
switched
##amines
999
fibronectin
imply
∑i
fic
suspic
ovaries
graduate
coarse
nmd
##132
##aba
lamina
darm
nickel
hereditary
##stadt
##omeres
##anus
farming
##actt
advis
catalase
sumo
presumed
##atation
altogether
p450
conformations
secrete
rearrangement
tender
##yrene
grouping
ferritin
postural
immunoassay
mean±
hemodialysis
compromise
rotating
alternate
interventional
polyvinyl
hams
imposed
continuum
microglial
sensitization
elbow
kindly
226
050
##illed
positives
##etra
sta
considers
##atalytic
275
vice
offering
##400
cellul
nanjing
nanofib
tsa
fing
##orial
acceptability
ppv
profess
accessory
couples
adaptor
370
hotsp
##oxygenase
nci
042
promise
##epithelial
sarcop
getting
drives
metabolomics
255
myelin
log10
videos
practitioner
mbp
##efined
hypothalamus
esophagus
chromatographic
kap
aggression
mucus
m−2
discs
##inephrine
##ishes
pma
fluoro
microbiology
##orax
nematodes
##quil
047
og
##cam
assumes
##plus
congr
pharmacokinetic
ctx
fragmented
##ovsk
##ococci
ontario
bonded
##eto
convolution
e6
minimizing
neurodegeneration
probabil
sedation
disseminated
enamel
tetracycline
stoichi
##amn
fibrinogen
##abe
neuroblast
worst
anaesthesia
wed
ross
undifferentiated
antihypert
##liers
##±4
alternating
immunized
spacer
subscales
osteoclast
stressful
##obi
##roplasty
civil
nond
hev
hospitalizations
transc
intoler
recognizing
poc
seemed
##pled
neuromuscular
046
beverages
dereg
##ostomy
dcm
existed
##izable
cornea
sox2
contract
cck
##oting
mcd
gondii
lind
ami
looked
enanti
recon
##riage
guan
##board
disparities
coulter
od600
cll
maturity
bear
eradication
bk
ehr
transparency
opportunistic
bz
044
nail
sliding
radiology
repertoire
matern
carries
##light
evolve
logic
sink
##rupt
carlo
##omnia
esters
lumin
thoughts
precipitate
##urus
ek
cens
tracer
perturbations
grafts
gentamicin
##107
245
occlud
qd
cyclo
nomenclature
subcutaneously
nanomaterials
crest
nal
##tinin
##otion
housekeeping
compressive
enterobacter
tert
rectum
deficiencies
additives
##uclear
collision
234
outliers
microbiol
##oblastic
##being
workshop
##otroph
suff
hnscc
##127
gdp
streptavidin
530
sophisticated
##imilar
suspicion
049
5c
untrans
unnecessary
melt
vn
##ulent
##analy
affer
morphine
occipital
dipl
p0
folate
pups
wellbeing
cd19
seeding
siv
ueq
scramb
psychiatry
lentiviral
##aminase
oligodend
ori
metalloprotein
player
personalized
mate
gins
posture
##acyl
##ohex
pere
ssa
inequality
##agag
monotherapy
ipa
neurogenesis
hsp70
condom
##uling
intramuscular
psychotic
227
043
tian
guard
taylor
seal
siblings
este
oligomer
contraind
shortening
sustainability
febrile
nepal
h19
ascites
ctt
trapping
gct
##pting
oss
densit
smartphone
embedding
##ael
fuzzy
##timal
swallow
mesenteric
dib
##onge
longest
enlargement
041
peroxis
m−3
granular
bilayer
killer
##eworth
meters
qds
236
ambiguous
methoxy
##iella
pik
predators
##imil
chop
##endorf
##ican
thrombin
isotype
ifnγ
gfr
pertain
##robor
reinforcement
##oly
furn
−4
distinguishing
enorm
islets
sigm
wiley
##gtgg
tracing
darmstadt
sure
##olateral
insecticide
prrs
extremities
multicenter
prototype
##orr
contraceptive
2g
410
raf
explains
discontinued
hiseq
spirit
amput
compensate
deox
239
##matic
##auer
demonstration
##urgical
##ostr
##apine
xy
acin
flip
tj
hydration
##mcs
distortion
remed
seropos
granted
communicate
##ortical
flour
nct0
##tran
contaminants
functionalized
##estation
methane
readm
##mb
lect
##eremia
v4
rotational
weaning
terminated
noteworth
ciprofloxacin
colorimetric
societies
postmen
passages
steatosis
garc
neuroendocrine
c19
nash
statin
##f6
immunosuppression
indexes
escal
##opathies
irs
##nb
covariate
hbsag
##kd
hur
##bumin
religious
sixth
abr
dodecyl
orfs
museum
versa
##pheres
##rogens
carbap
consultations
cytology
##145
cultivar
mig
cts
iner
##obank
pluripotent
233
container
lan
qualified
ems
researches
##atization
##incial
##otoxins
opinions
ish
thrombocytopenia
ki67
meteor
aac
scholars
jr
mist
charges
lose
##ieties
oxides
cnts
fundus
averages
polypeptide
##h4
##athers
interpol
completeness
attendance
##azone
weighting
disagree
pcv
paternal
alters
arteri
trip
backgrounds
api
fx
periodontitis
hscs
scs
implying
hw
histidine
mobilization
h15
quies
endometriosis
mechanically
7a
islet
lbp
scratch
boy
poisoning
permits
yrs
##minth
bivariate
##olys
mounting
dsrna
ambulatory
corning
phr
declines
boards
232
racial
smoked
##itating
erα
312
uric
thrombus
##vef
noteworthy
thio
##itch
##ogs
naph
2−
295
0003
##ulae
robotic
subscale
lad
##osphate
livers
probabilistic
suite
eigh
heterologous
anx
strategic
audit
haemorrh
##ypti
##202
asking
titration
anoph
##esi
imprin
generator
commens
terminology
operators
autoantibodies
cationic
wards
##ju
##ews
##ografts
peters
butyl
fk
impression
centrom
judged
##odynamics
neuroprotective
synt
##cens
productive
##agl
##orable
adjustments
encapsulated
490
discontinuation
peers
6j
corrobor
clara
##elt
fault
immunoreactivity
bare
##omyel
modelled
##afil
prere
proliferating
beat
fifteen
appetite
cargo
1038
##nac
pyramidal
##eda
quit
##apore
pals
##ophilus
brainstem
nude
deployed
reinforced
##160
overs
slit
##ivirus
mcm
fuj
tracts
clarified
experimentation
##tef
consume
intakes
certif
nmda
##ilin
inflammasome
equiv
##pb
rabies
hips
##lass
synapse
850
thro
mos2
diarrho
incon
homogenous
saudi
hypersensitivity
##dam
insomnia
analgesia
typhim
intercellular
##eb
snail
fractionation
synchronization
aliquot
fibrotic
engaging
##urate
cart
irrele
warning
##nr
psychometric
neurodevelop
gga
worm
##isco
consolidation
tlc
anthropogenic
paulo
080
##vern
accred
garcia
cant
cpt
##ething
hetero
culturing
##gan
##qc
gle
aps
sid
crf
##vd
russia
sixty
etching
cd20
diseased
thread
cj
sandwich
arthrop
amen
failures
inequalities
##omegaly
intravenously
tracheal
actu
237
splitting
capill
gastr
postmenopausal
lux
brun
typhimurium
nanotubes
##entral
stocks
rpl
##ymb
xr
reactivation
##roliferative
internalization
1980s
b12
l4
gca
supposed
##oracic
−20°c
autonomy
##umber
multifactor
went
inte
##etti
leafl
crown
moh
funnel
please
##a4
##igan
statins
biochemistry
glycemic
igg1
##uda
opac
epidemics
unequ
something
##diagn
ferm
deer
imputation
continuity
pis
dpph
disclosure
jet
bost
##ematics
##aterally
yfp
hon
relates
neoplasm
##burgh
vestibular
##300
248
##nett
thp
esrd
recap
rifamp
##brt
thymus
reviewing
thigh
metropol
heritability
##gian
confirms
##iazol
##ios
prion
shelxl
arid
crosso
thiol
ttc
244
vegetative
##angu
contrad
ideally
##ulic
accelerometer
imagery
zip
##ucher
ssr
raising
occupancy
plc
1093
mitigate
cholec
uncon
aldh
##erved
gemc
penal
oligomers
cbt
##infection
clav
singapore
topography
beats
concentrate
babies
augmented
reared
pde
centi
cured
accidents
nadh
moieties
manufactured
preec
cif
gcc
fvc
cleared
##ocyst
##urons
##functional
degrade
kre
##agcc
aegypti
brady
2100
enteric
tmax
mtx
subdivid
reef
disadvantage
myr
propidium
constituted
1974
nocic
hans
##wes
paradox
##actc
patent
##atil
csc
magnetization
durations
nh2
antihypertensive
haemoglobin
explanations
sak
unavail
1950
irrelevant
lanc
540
tma
endurance
nematode
convex
##bra
##osensory
predefined
fan
##ults
247
wp
##idone
locomotor
amn
threats
lyophil
autopsy
##asant
fret
##eptid
citations
##ocene
elongated
kf
ost
piglets
detachment
wnv
vw
plos
ineffective
consequent
vitre
millions
thf
segmental
spikes
catalysis
perceive
246
provincial
##the
##agia
interne
abundances
efsa
chl
pz
##ishment
omn
##itoneally
saccharomyces
lever
acl
intergenic
neutralization
desire
tidal
##acon
243
wavegu
bcs
installed
##oxicity
cascades
1973
oscillation
##obia
gemcitabine
mount
285
mold
g6
necessity
lactation
nsp
coexist
equivalents
adsorbed
bevac
incubating
##alo
shares
microtubules
strip
compiled
spong
bioscience
##oneph
clinicaltr
a4
##omide
quadrant
vii
undetectable
burnout
tensor
h16
276
ordinary
##2−
performs
torque
deterg
seminal
##omotor
goats
kerat
coatings
shortly
lipopolysaccharide
hamper
esds
monkey
boost
##inae
transformations
bevacizumab
##istar
adenoma
nationwide
s1b
diagnosing
photoper
ans
exud
510
pharmaceuticals
oxygenation
probiotic
deployment
difficile
indonesia
##onv
agitation
##exual
hypotension
249
##l4
specialty
hardy
triplet
scn
570
assistant
sri
isomer
##icum
hyperp
cylinder
reflectance
territory
specifications
msi
methan
##ref
disaster
increment
anesthetic
288
citizens
mz
µmol
cst
anticoagulant
##parametric
emphasize
fairly
##ingen
##encia
##tructural
2x
vasodil
mutually
##imide
herm
computerized
278
rois
##anin
judgment
6b
suppressive
butter
labs
lvef
tachyc
pharmacists
pairing
tgg
tubules
morphologies
lub
pgc
hkl
marketing
leis
money
applies
whenever
bifurc
herbs
##iesis
forear
thousand
raises
fits
orthologs
≥2
mcg
##mium
positron
controller
neuroblastoma
toluene
silent
##heads
repository
norwe
multin
metac
fron
hct116
dysph
##cif
victor
rhythms
cleft
morphologically
uniprot
ascorbic
265
operon
hil
angina
associates
moll
##ophytes
predator
litterm
och
arrhythm
berlin
maintains
##cu
classifications
skilled
virgin
prostagland
anaemia
10th
325
dissip
regimes
willingness
terp
adenovirus
dub
suitability
tcs
rag
##rotection
gang
hematoma
belonged
##astric
evidences
perovsk
warf
binomial
multifactorial
scin
hmgb1
disciplines
advantageous
##x4
##cast
hepatocyte
propri
assimil
emitted
##oves
comprehension
subop
##108
decide
twins
hodg
##ynchron
floral
coverslips
cytometric
##1α
##ustion
dichotomous
circrnas
acknowledged
##annon
aeti
##yphilis
bak
tactile
##y1
##biased
##128
exceeds
##inergic
##biosis
lipase
thrombo
273
##cing
guarantee
ensured
airways
appearing
roman
phytochemical
390
jin
narrative
##bro
synchronous
analogs
##tera
rivers
sedimentation
nitroc
allergen
##ondyl
thomas
pneumococcal
##170
##fully
strips
nitrite
xps
##encer
##no3
jh
economically
depths
issued
alf
sst
alarm
253
##orre
hypothalamic
seoul
##qi
cnn
colonoscopy
synucle
##estr
nhe
wgs
##ignific
##oidosis
reproduce
alginate
adenine
##tier
intraperitoneally
##eastern
entail
microv
depicts
escc
sentence
zoonotic
voxels
monolayers
jia
virulent
##adzu
huvecs
##2r
flora
unbiased
sponge
258
subclinical
myo
##1011
davis
carboxylic
##ched
bite
##acrine
throat
chir
polyg
##urea
rehyd
sprague
citrus
subdivided
descriptors
##athyroid
hollow
tack
##clusive
helping
paralysis
bib
alert
308
257
glcn
preprocessing
encouraging
##emp
##elae
clinicaltrials
enormous
morbidities
aca
hir
exerted
norwegian
capacitance
pour
0004
residing
##edicine
##accc
nah
uniquely
##itters
daughter
epist
amazon
microf
##iline
pione
ucs
prerequis
ppp
benzyl
photographed
synuclein
arach
spiral
ensures
yog
nucleation
mmr
##oplankton
underlie
precon
thermodynamic
constituent
preclud
centrifuge
nitrocellulose
quartz
ttt
spore
machines
tz
degrading
shimadzu
q1
gum
zym
progressed
dsdna
indole
migrants
##phos
multiplied
ferr
proposal
herd
legislation
bottle
cameras
cep
folds
eliminating
##oen
##orov
lich
bpa
microbe
##osomiasis
incremental
proteinase
microl
eug
ivf
physiologic
##tg
4h
argenti
confusion
permitted
##oac
crosses
stereot
cobal
exacerbation
mechanics
excitability
ccs
##ecd
biocompatibility
##±5
integrative
315
rid
##fh
rneasy
##adow
flavonoid
measurable
fibrils
wistar
##quilibrium
##izz
standardization
theorem
cing
charles
pls
immunomodulatory
septal
dynamical
biologic
##kh
comfort
ca1
mans
pyrim
##fi
stacking
fj
sectioned
##berts
producers
parenting
blocker
sativa
##chen
trapped
reservoirs
pyridine
blindness
blinding
##arctic
suboptimal
spectroscopic
certainly
625
powders
440
dawley
ui
aggrav
##ignificant
oval
utilizes
anisotropy
ferro
linguistic
orientations
emergent
ito
command
cancerous
encompassing
##tention
forth
inserts
eae
eosinophils
fingers
antidepressant
##ophosphate
treadm
##7a
leisure
##uro
philips
sentinel
qub
mycop
boston
268
capita
psychiatr
##osoma
##var
lytic
hairpin
containers
dft
ipscs
piezoelectric
uve
##enna
biore
thermof
exploit
kon
quantitation
undergraduate
microp
iot
bottles
lacz
ownership
lowered
cher
branched
nord
mx
exported
d6
nsaids
241
##264
particulate
uas
iris
huh
anastomosis
scrap
hodgkin
monoc
orthologous
intraocular
photoperiod
chaperone
immunocomprom
##osc
hitachi
receives
##lp
markets
##119
hierarchy
1m
communications
telem
252
hardness
rbcs
pointing
##istically
##itely
shedding
neuroscience
ctla
thawed
ltr
ebp
mmps
h2s
towns
##awi
nicotin
rectangular
columbia
##roportion
pter
242
630
sadabs
263
luminescence
discrimin
tinn
unfavorable
probiotics
aat
sonication
ud
ripa
universities
superimp
##yb
cta
preeclam
dith
##5b
washes
biomechanical
anonymous
resonant
alkaloids
dong
surgically
##istrib
tether
##129
h3k27
preeclampsia
erythemat
ataxia
301
##bladder
triangle
preparing
6000
retardation
interl
tuned
adhere
bony
alleviate
dismut
steep
##utely
colomb
trast
##obarb
##aku
professor
conting
shelxl97
##fast
##gut
gnrh
treadmill
elusive
immortal
mandible
mtorc1
hilden
compensatory
assemble
emuls
bean
malformations
pem
stabilizing
c22
monomeric
266
##okes
infective
expiratory
rio
##oglycan
yap
doxy
imrt
guiding
1111
stick
cen
florida
weinberg
ncc
bx
stun
nbs
theme
combat
aperture
grams
allerg
neurotransmitter
267
pauc
retrograde
##his
peru
1s
284
##hex
spreads
baumann
haw
disproportion
ink
chile
intercept
preserving
##fortable
trophic
tinnitus
##elastic
meiotic
script
rfl
incenti
−5
ggg
shelf
disappeared
chew
055
histories
deeply
inhaled
neuropathic
colocal
hpf
helminth
##thermal
homozyg
##urgery
oe
carc
##nandez
430
##opyran
nuclease
conception
dissimilar
nationally
##ymers
silicone
##hire
boos
octa
capturing
priorities
gun
nab
pcdna3
##plasm
cruzi
crossover
destructive
cbd
appointment
##ador
##138
curing
cavities
predisposition
periv
patterning
u2
wd
ingu
ritu
oxidant
251
##ocyanate
esteem
##ipt
trastuzumab
pesticide
minne
cd133
##ostatin
##tep
deformity
multidimensional
##regn
hoech
prohib
##amoto
##inally
catechol
mst
##uran
spa
##erica
##asions
satisfy
pge2
##outs
biph
bla
##k3
##bu
aic
breaking
porph
053
##ofol
borders
extracting
supervis
bloodstream
medians
tlr2
syphilis
doll
lec
##uce
neutrop
evans
##adjusted
scf
gliomas
faecal
moves
campyl
ott
vials
blunt
##obarbital
pufa
##drs
##μm
jug
epileptic
460
permeabilized
##enders
hyperlipidemia
##adec
yun
locality
##opathology
277
noting
efficac
minneapolis
uh
counselling
gj
lying
llc
305
##itre
ffpe
v5
cdcl3
leader
##ket
reside
drg
dsc
##co2
empirically
grip
cl1
indels
vte
f0
septum
membership
tremor
solitary
nz
fent
rearing
##yrate
##entation
tdcs
trav
uncertainties
##ubs
monocyt
carib
##enedi
duplicated
##othi
write
415
recognizes
rodrig
##ibrio
##ello
316
dum
diarrhoea
counterstained
drawbacks
2×
instrumentation
tachycardia
pfa
intersection
multiplic
aberrations
299
sons
cgi
galactose
license
1971
##eses
nasopharyngeal
ale
interior
d4
genotypic
zyg
052
f12
noncoding
micronutr
##ieu
lavage
adipocyte
##ifiable
1972
confluent
##astig
cog
empathy
intramolecular
exhaustion
glycan
momentum
333
##oric
cape
414
unigenes
cesarean
##astically
volc
##reval
trache
predation
##aro
stones
acknowledgements
trabecular
pond
##anz
##oplasts
304
iia
287
contractile
##sch
292
embolism
evaporated
##plot
rituximab
##ruption
neurof
cholera
proceed
gentle
reacted
plating
gaining
arrowheads
hcg
divide
decid
astrocy
immunocompromised
gallbladder
geriatric
289
trifluor
telomerase
vial
303
##airs
eppendorf
sirt
##ennial
batches
cres
hang
ignored
armon
ctl
286
##acetate
##hard
manifested
cran
xt
ctg
expresses
vicinity
setae
##dynam
immunogenicity
##ylon
stz
impuls
subclass
analyte
canopy
anom
contractions
arthroplasty
##itoneum
hoechst
etoh
contrasting
klebs
prokaryotic
thalamus
##ip1
desorption
1186
cardiopulmonary
##vastatin
humoral
marsh
tlrs
diethyl
toxicities
sorafenib
dermatitis
prison
##otopic
wherein
##mn
056
054
cyclophosph
elite
pfc
tir
tell
elementary
640
cooking
##f5
##562
neurology
##olipid
forearm
680
granule
filamentous
##pg
recruiting
logarithmic
locomotion
##ocysts
##terdam
campylobacter
workforce
##enda
thermofisher
302
procedural
manipulated
indexed
515
micr
budding
−17
hart
wrong
ch4
lei
##ynch
pipette
##orex
hypog
quadru
selenium
cadmium
armonk
##entrif
director
bcc
seropreval
##uretic
hyperactivity
nonparametric
encompasses
synergy
herni
incis
anions
biole
feat
293t
delir
arrhythmia
##ivir
adiposity
inguinal
theta
dilation
paris
polyd
plexus
interfacial
echin
hypothyroidism
diagonal
##omyelitis
versatile
homeostatic
##1213
rankl
testes
##log
dilatation
sulfoxide
shrinkage
ssp
epoch
##aterial
##ogeneic
shortest
controll
mycoplas
##istin
noct
chips
cyclophosphamide
esbl
websites
enhancers
al2o3
crs
cd1
osaka
evenly
cyanobacteria
supplies
hgf
orthopedic
yan
carcass
doxycycl
##xtl
##lar
##005
propofol
ptv
movie
057
transit
zr
identifier
borderline
encephalopathy
##121
rint
269
##atable
warfarin
monocytogenes
dict
fe3o4
##uki
postsynaptic
##oste
iκb
##itized
inr
advised
disequilibrium
cardiology
wildtype
phospholipids
deduced
myd
shaping
279
capillaries
collagenase
endors
seedling
meant
municipality
allen
neighbors
orch
separating
redundancy
aerial
identities
##anese
##ingly
ace2
##olk
anchored
ebios
constric
displaced
parti
no2
9600
devoted
ree
fov
inexp
seph
wales
reviewer
velocities
##tigraph
##oxia
glycans
announc
oscc
##uterine
dece
accommodate
##achus
##nov
bpd
##gap
##aric
agc
efficiencies
ebola
syring
neovascular
hyperch
natal
sutures
chrys
deprived
confidentiality
##entified
teacher
emulsion
pct
ending
rotary
bulb
bioge
amers
erp
underweight
morphogenesis
nanor
294
histograms
##electro
cnvs
shelxtl
streams
##acgg
launched
dextran
hps
autoc
##abolism
anode
##ager
loos
doxycycline
metropolitan
turning
dysregulated
electrosp
##alanine
miseq
comprehensively
icam
5°c
buccal
translate
##eland
zheng
##bas
mimicking
bifid
void
##uez
communicable
prosthetic
10−5
acknowledgments
090
electronics
bags
intent
anticoagulation
relied
ipf
subpopulation
randomisation
summed
scid
mindfulness
checking
wish
zika
2030
wilk
aag
slud
detached
apr
royal
##omethane
##ql
##×10−
synchronized
nanog
mush
contributor
infecting
osteoblast
051
parathyroid
klebsiella
harmonic
tic
caa
floating
n0
##ticle
centros
≤0
leptosp
earthqu
restrict
##102
phylum
1002
concurrently
bridging
ricketts
rooms
##opause
tetram
o5
##isd
barr
societal
dyn
cd28
glab
dismutase
specify
##equencing
glycoproteins
##onn
infectivity
272
s0
##bell
unhealth
0006
##otics
lethality
audi
wavelet
##mog
analytes
##omatic
h5n1
homogenate
remn
episodic
pim
##q1
twist
pher
10−3
turk
lights
metagenomic
skewed
qualitatively
dying
##roch
constip
##ingual
impairs
##cus
tad
realize
anopheles
hydrol
advent
gef
uncover
coi
ancestor
reimb
560
##ecu
merely
spines
##urred
ctcs
remember
##olla
##idt
daytime
fluxes
274
phd
comparatively
carboxy
occasional
060
goes
governments
##agglu
glucocorticoid
symbion
carcinogenic
cryopres
gtt
destroy
formally
clostridium
subspecies
demanding
volunteer
##oter
workload
sanitation
416
vv
dnmt
gamet
street
δt
scholar
0011
occasions
amersham
argument
creative
ellipsoids
northeast
dimerization
pst
synapt
mesoth
g0
carol
##oca
t1d
##rox
thromboemb
quenching
walker
autophagic
##vix
optimizing
297
##260
c21
##glycer
tracks
bred
058
algal
338
pedigree
choline
wearable
imperative
u13
ids
bundles
ventilator
obsc
paradigms
shen
pgl
curved
##lic
witness
pdt
someone
budget
datablocks
##zymes
dlbcl
##sm
presynaptic
repressor
##gend
overestim
qia
compressed
colloidal
vertex
capsules
unadjusted
lpa
ipv
button
##uclide
##i2
heidel
contradict
##olus
##vised
posttrans
trying
##ocrit
antimicrobials
dihyd
semin
seroprevalence
tremend
##uents
slip
executed
verm
presch
psd
prevail
##ih
thematic
methyltransferase
θmax
revolution
262
fishes
leishmaniasis
underp
parv
##ozyme
fermented
kpa
dext
470
dipole
mev
motivational
supram
vg
palsy
fails
delirium
##ognitive
sludge
17a
quater
fischer
ctd
dsb
glcnac
##iler
datablock
caes
ecd
ridge
##atology
tann
carbox
navig
##kii
htlv
strengthen
speciation
imidazole
linearity
organisations
##1516
##glut
##arf
##umn
beef
basement
detectors
environmentally
##western
##ystic
yearly
inbred
532
##rey
shannon
histones
checkcif
rflp
agro
##b4
psycho
prices
retest
smir
lysosomes
claud
hybridized
##sup1
##oka
constructing
e7
adhered
intran
mrc
cd31
rounded
unhealthy
amh
archaea
iac
pva
##ptosis
mong
toxoplas
attained
kumar
opioids
rgo
localize
sms
quartiles
finn
baumannii
h2b
314
ramp
gor
menopausal
arctic
riding
063
anomaly
≥3
silva
withdrawn
sew
infiltrate
lmics
##acia
homogenates
orthopa
##su
needles
detoxification
##acea
unified
acquiring
##phan
phthal
heidelberg
##ositis
h3k4
##1a1
rotated
cgg
rk
283
demyel
groove
reimburs
cofactor
probing
assesses
crim
primate
shapiro
pathologists
amylase
335
compatibility
ops
covalently
adr
##hb
bps
##vert
socially
constipation
620
##ubated
##angen
ghz
polyps
czech
##oda
cftr
elmer
egypt
lacked
##osaccharides
apnea
##ambig
carotenoids
uplo
##conduc
turns
echocardiographic
##align
##cope
mdm2
enfor
obstacles
##holm
appraisal
pests
##isks
378
husband
##113
amr
spons
enj
governance
physiologically
grows
10−4
variances
313
subcortical
##eus
cour
##transferases
biolegend
kolmog
mediastinal
destabil
kaw
trimmed
##190
##acheal
fluctuation
landmarks
inexpensive
meiosis
attainment
bure
##2d
nucleosome
mari
extens
ets
scop
bacteremia
actors
3t3
fork
θmin
mch
edited
infancy
calves
centred
##aten
diversification
arrhythmias
075
confers
##inflammation
beth
vero
##iters
064
ltp
endo
##isup2
mlst
catalyzes
##elic
disturbed
victims
tct
spatiotemporal
##iva
proposes
grazing
309
neuroc
andre
##caa
nrs
cd40
##uo
bach
059
embryogenesis
bmc
##ellites
l5
ith
0007
##umes
observable
##pert
illustrating
troponin
s7
discer
shh
electrocardiogram
rj
fission
eo
##ropical
unsaturated
##agin
screws
singh
donation
liquids
electros
##ivalent
##yces
thyro
spo
barre
mart
tall
diary
418
glucan
pressing
##pyr
g003figure
crani
participates
##pv
##uri
myb
encapsulation
##ispens
rfs
overlapped
##etaxel
story
epidural
##gluc
plei
texts
##inositol
speculated
2fc2
diamin
residuals
##iser
messenger
sort
1970s
serous
queens
wearing
##ener
ecog
houses
##223
atrium
foetal
guo
3f
q2
xylene
spermatozoa
registries
##ovol
iterations
sonicated
memories
ned
intrauterine
correspondence
phospholipid
suggestions
##ueq
css
chris
oct4
1968
docetaxel
uln
##gm
##gest
307
dendrites
meteorological
cabg
##anum
580
analysing
##atag
##duction
306
thorax
stringent
##gran
vienna
##arsh
r3
subsam
sod1
pots
spend
sax
##azo
really
spm
0008
laid
cbf
kanamycin
##entions
corticosteroid
retroper
unavailable
##aemic
licensed
untranslated
evolutionarily
fishing
michael
282
reflective
tpa
cathode
##opharm
preferential
##enicol
tmin
revascular
campaigns
cytogenetic
aga
tdp
ikk
adapter
hsct
popularity
##osamine
##ithromycin
hydrothermal
catast
pherom
phc
kolmogorov
hyg
hept
indispens
##oxane
extrusion
locate
nts
323
rendering
shunt
sleeping
##2α
camb
##ovar
271
moments
evening
tec
escs
gsk3
partitioning
municipal
disin
oroph
rumin
groundwater
neuropsychiatric
pyth
taz
directive
interconnected
brit
massachus
pfu
assistants
acknowledge
##redict
lentivirus
bottlen
computationally
##apto
##alent
nanoscale
defl
nut
acta
incontin
postm
gradu
reconstruct
##aid
##tinent
massachusetts
##atized
argentina
aunps
medicare
cem
captures
tme
ung
##inus
fertilizer
xn
asterisks
endang
pgr
logical
hig
amphib
318
##ede
sca
mpt
consecu
shoots
##elson
advancement
folded
##anthin
io
cannula
##capes
subtracting
ptb
conjugates
refused
##oderma
normative
stein
rotavirus
schwann
##ilies
divisions
##gaag
417
recommends
carbapenem
385
daf
relatedness
philipp
##rexate
vb
1097
##actants
oxyt
pea
golden
mgso4
##pm
355
corner
alum
pik3
bap
archive
maca
coagul
345
radiography
##atite
biorad
pean
ranks
cd56
dissociated
speeds
plasmin
otu
zeta
determinis
ingredient
dentin
##wanted
780
##osel
unwanted
##arians
explos
##whel
micrographs
cytoskeletal
perovskite
diode
harb
##680
compares
bridges
roberts
aedes
allogeneic
wan
##stone
065
attenuate
junior
handled
deliveries
incorporates
##oded
0016
hcs
337
261
clustal
infinite
stan
intrap
##uer
fst
billerica
dsbs
gtpase
prerequisite
gus
iw
begun
entom
orthodontic
ctrl
##rac
crosst
##acers
vertically
manufacture
jurisd
consecutively
##oresp
monochrom
bup
shaker
324
reconstituted
declining
scotland
##2s
hydra
overwhel
solids
primed
##weigh
boiling
categorization
pumps
explants
cognate
h⋯
rog
municipalities
std
endotoxin
cilia
cus
laparotomy
##loro
fusarium
##lyca
devast
critic
##erae
prun
energetic
biophysical
governing
kor
##ixed
aesth
cdi
guardi
##akis
##nem
instar
m0
062
##9a
291
fen
##acrylate
abbott
##othorax
##titer
iucr
saving
720
hypother
±1
336
pept
intolerance
cobalt
propagated
vesicular
##124
endocrin
328
ell
ecmo
rolling
s2a
histamine
methot
euro
vasculitis
fibro
amplifier
crohn
adopting
enos
polyph
##imumab
laryngeal
insecticides
nanowires
imatinib
crust
heterozygosity
##ldl
tracked
superscript
##afted
##118
purely
emitting
perine
319
recapit
moss
##rib
0010
substitute
dwelling
##relin
symmetrical
smears
mcf7
cpp
clad
hypoglycemia
iav
pleth
deceased
chronically
pace
guardians
damages
preschool
vitreous
nodular
##115
##uto
##odom
scap
##ethyls
acidosis
##test
neurodevelopmental
ebs
as1
assurance
ebioscience
##osm
rfp
transfers
xx
amputation
425
##aaa
defence
##obium
terat
##oven
methotrexate
##ophenyl
therapist
guangzhou
chan
##hae
##nl
else
biobank
fasted
##1c
veterans
superm
invertebrates
caribbean
sulphate
vip
317
##155
##ocus
067
ceram
##owed
##raft
oncogenes
commensal
ache
##vine
wires
ozone
myofibrob
##ellosis
facilitators
mefs
derivation
mct
philos
pei
antarctic
incentives
heterochrom
ngf
##igo
introduces
##atom
greece
malawi
##atech
##plat
crosslinking
##rolimus
##families
interneurons
regurg
##repres
schistosomiasis
rud
##algae
proband
fz
##uin
preceded
bms
therapists
strata
categorised
##eliac
##seq
ptx
pediatr
10−6
##oxazole
glas
brca2
hrt
returning
subgen
osteoclasts
##×g
insensitive
injecting
ec50
deacetyl
activators
##0000000
cholinergic
recreational
tgc
polyst
mortem
gis
adl
pmma
buildings
asterisk
517
accessing
hamb
diagrams
alloc
donkey
mth
pus
##ophagy
##kit
agnps
##uber
dams
##adium
snake
stratum
thalass
deaf
temporally
##attc
##ulse
lav
1964
ipsc
lister
atopic
triage
sentences
##tillation
070
carolina
menopause
bioinformatic
##ovic
cytosine
tbst
secreting
##pervised
##oresistance
dangerous
413
##β1
nigr
377
initiates
##cnts
2θ
##pn
valencia
migrated
facts
smc
mercapto
hcmv
barcode
argon
##gac
serially
##ylv
indispensable
print
sarcopenia
interrupted
resemble
heterodimer
identifiable
microspheres
burns
gonz
pacem
slopes
olds
fetuses
lymphomas
quadratic
spirom
373
aven
pds
finished
pentobarbital
ascribed
abolished
##plicated
hardly
plga
blade
antip
party
fumig
relaxed
##isy
crosstalk
##150
bilaterally
subtracted
anorex
##agger
gluten
nonp
##trin
nss
tier
imputed
nasc
##andial
##tite
##imers
##imotor
##ycle
claimed
overlo
fourteen
##pecified
arrangements
circulatory
knowing
sre
mesop
instantaneous
meyer
wait
pigments
##251
smirnov
pcp
##ussis
##uish
##ims
##ston
cingulate
##1000
##organization
cervix
pupil
unpredict
fors
pooling
heur
nylon
##vable
hydrodynam
invading
##sson
presently
326
gk
419
descent
harbour
catalyze
pag
bpm
beyo
ats
ghrelin
##zel
told
nests
##phones
u12
##terp
incontinence
creatine
encounters
gao
##icially
281
flame
ophthalmic
cun
pharmacokinetics
overdose
##iri
asn
pertaining
burd
sensorimotor
##1718
tha
formerly
outgrowth
##uman
vps
yeasts
complemented
enters
aggl
infrequ
twe
equity
enjoy
bore
##icide
cardio
coma
ants
omics
tilt
cada
apob
exceptions
childbirth
mirr
msa
mannheim
##jug
hexagonal
roth
elasticity
hek293t
parat
push
322
##aea
send
outflow
shin
anhyd
nymph
karyotype
##opa
duodenal
sequelae
desicc
ezh2
412
327
riv
##orescence
neoplasia
persisted
glutar
intersp
acetylcholine
##hm
detergent
immunocyt
minimized
##assie
nipp
nosoc
ileum
nex
spliced
harris
339
preventable
eigenval
virions
cy5
powered
0013
hypom
##bon
dti
##114
melanin
unsupervised
##kat
join
7th
maternity
bronchi
##idyl
##xual
adds
xylose
triangular
bras
truth
macromolecules
glycosyl
##006
summarised
igg4
deterministic
hydrolys
repetitions
ingested
geographically
bph
##tanding
gln
chimpan
##crt
376
fuk
##erin
formats
outlet
rater
brachial
0012
1969
justif
cci
mineralization
344
mycoplasma
##uminescent
depar
radar
beyotime
pectin
apl
oblique
##illo
continental
wg
exosome
##ensiti
##ibur
aneurysms
esp
shortened
bidirectional
ventilated
##rr
##ctgc
alloster
alcohols
fingerpr
naf
##imal
extant
468
pericardial
coom
assignments
catchment
##gun
hematologic
##vial
##formed
0009
recr
594
combustion
vulgar
allergens
extrav
1100
buds
##iant
ethidium
neuroph
lancet
##lt
nosocomial
arabia
##inities
nanocr
##117
door
##olipids
##uters
classifiers
061
palate
##hic
##itine
sickness
bah
##ills
contiguous
##aud
##ochlor
71073
##±6
##ainees
mycobacterial
christ
3β
##fm
sgrna
gras
kcn
368
spaced
dynamically
##pic
342
shaded
cfa
repressed
reproduced
intentions
jar
068
##iet
##elian
creb
primitive
##ozoites
366
submuc
copolymer
066
spotted
lyophilized
−10
storm
portugal
uroth
vulgaris
9700
dextrose
##opress
equilibrated
progresses
endangered
##rals
paucity
manipulations
ears
artef
kang
fove
382
striatal
multimodal
oak
learners
contradictory
trnas
optics
##asted
gambling
sigmoid
hemic
neglect
polystyrene
myx
435
baker
exponentially
##rophin
chikv
##110
proliferate
puberty
releases
##bachia
cole
favourable
interviewers
biomolecules
##cos
lenses
##esus
residency
##rows
pai
fak
risky
schiff
homod
univ
##change
augmentation
discharg
357
aquac
teg
telomeres
dor
nis
prednisone
interrog
denom
367
choroidal
divor
enterica
phenotyp
mud
interviewer
invasiveness
##works
chat
photocatalytic
sis
u87
thirteen
metab
neutropenia
carriage
obstacle
cao
shield
qubit
thompson
detects
afferent
lov
##ometries
architectures
antidepressants
bradford
inclusions
transposon
tps
nig
migrating
##matis
hexa
##cripts
symbiotic
vdr
rhabd
##amphenicol
jeol
seventy
addic
aggress
compensated
quiescent
wisc
tut
duodenum
integrins
fatality
pertussis
##ophenol
visiting
dwi
thz
##ispers
wolbachia
##mus
##gy
euc
catheters
trachea
353
burning
mission
hazardous
tek
multiplicity
##jin
epo
##ums
drastically
372
aldehyde
##dong
##antine
electroporation
artifact
mpo
expose
sich
spondyl
petrole
urbanization
desm
hypertrophic
u11
cheese
pcna
embolization
##berger
odd
happens
undesirable
streptomyces
basel
383
2s
shortage
neighbourhood
geometrical
bovis
supramolecular
##functions
514
1°
retail
governmental
pigmentation
##indole
uti
purpos
harmon
possessing
cic
##aple
varic
anisotropic
dicer
b16
stalk
viii
cdkn
inlet
##orrhea
methicillin
auxiliary
##111
inqu
singular
398
allograft
chemotaxis
##agi
originates
rop
manipulate
doubling
lymphocytic
unremark
485
campus
##erus
phenylalanine
galactosidase
dhs
triphosphate
rescued
petroleum
migrant
##terase
cmc
localities
neuroinflammation
restraint
ship
terminals
dysphagia
cbct
doubt
penetrating
soaked
arith
ultrac
urgently
wrote
serology
##icz
valued
ordering
nhl
359
bottleneck
suz
unremarkable
unambig
imid
##ullary
paracrine
georg
glycosylated
disagreement
##nels
bl21
burling
ordinal
##isch
jejuni
efficacious
vinyl
eut
unw
rhamn
##4b
absor
##idym
corrections
reconstructions
autoimmunity
ddr
329
triangles
waveguide
vibrio
##istribution
##oprotective
rejected
glycolytic
northwest
bisulf
##din
secretions
seated
speakers
accelerating
submerg
##through
rheumatic
polynomial
##aco
plantar
condensed
empl
lope
lactose
permiss
##aut
permutation
##omavirus
profit
calp
niches
gaa
dysfunctional
##ubiqu
395
##acac
casein
##apsing
glutaraldehyde
ror
hpi
u22
ral
cyber
##gaa
uncorre
peng
convey
dmd
individualized
haart
costa
unambiguous
##sr
387
nanocomposites
devastating
centroid
renewable
disrupting
laminin
monot
silenced
##11111111
348
iaa
##uccess
##ectom
referenced
q3
740
mary
sixteen
adjunc
aborig
anomalous
chloramphenicol
loose
saved
vertebrae
counterpart
379
p5
u23
immigrants
5h
t6
trainees
##osexual
penetrate
predisposing
##eme
##orphic
##enoic
exchang
acp
388
354
358
dephosphory
phle
vibrations
kun
carbam
penins
truly
qtls
densely
plank
astr
0022
nahco3
##139
rumen
334
subtropical
##172
pha
##ometrically
spending
ensembl
warranted
discriminant
##insically
##gb
favored
radioactive
396
underlined
swallowing
zhe
bari
spiking
rods
compete
590
rheumatology
331
functionalization
inositol
##∑i
##ophilia
toc
##opoiesis
glomerul
unsuccess
##ploidy
disparity
381
zn2
traf
autumn
1p
341
aas
parac
rifampicin
triplicates
valves
remind
hypercholesterol
386
distorted
seriously
senescent
##k4
oxali
bioanaly
censored
401
epididym
363
haploid
dichloromethane
contributors
hamm
globe
346
macaques
cereal
mics
membran
estimator
benzo
refriger
##tp
depolarization
voucher
u33
duplications
##ymethyl
colombia
organelle
spiked
##oxins
0025
oscillatory
##oal
rigidity
milan
parenchymal
biolabs
519
stimulatory
colonized
sparing
basically
332
roads
##lem
oxaliplatin
##actone
bern
ribonucle
unprec
##ctgt
congestive
safely
relying
plasmon
fbg
##balanced
chlamydia
gout
stillbirth
2p
##480
##icides
aided
##dl
somatosensory
touc
nanoc
lncap
happen
516
characterisation
069
361
8000
spheroids
h17
csp
hydroxylase
puer
lk
pathologist
edible
##orms
pasteur
##thrombin
1600
helicase
unmet
ascertained
cards
iranian
scarc
##gis
660
a0
343
##ocysteine
518
steadily
xenografts
unpreced
fts
##orin
356
multiplying
logarithm
electrolytes
eis
martine
cim
hallmarks
evac
grp
usd
influential
manganese
clip
tremendous
##atia
intras
##odex
aor
##alez
##olinium
corpor
gig
cocc
lopez
equator
masks
adrenergic
batteries
intercal
orches
lsm
offl
substituents
inflation
jak2
picked
trib
uf
−6
##roscope
ssdna
374
##olis
##heets
annealed
unprecedented
folic
odont
federation
modulators
xenopus
omim
implied
photoreceptor
endocarditis
salic
##yphenyl
##breeding
gabaergic
upward
entrance
fluc
iib
amphoter
faecalis
repeatability
synthet
bibli
governed
hamburg
glucocorticoids
##137
inspected
15n
avi
empower
award
##cb
##hop
adenomas
sinensis
##nik
##pta
##etrically
##tech
aquaculture
payment
god
##apop
xin
crl
bcl2
infused
sensitized
salient
submission
##omogene
##amps
30°
o6
queries
2°
##urface
352
morris
##gel
1800
confirmatory
garden
gac
pluripotency
disposition
dag
unbound
caution
##mas
389
pyros
franklin
364
camero
interpreting
##assemb
anhydrous
corners
formulas
chemoradi
##ecal
anton
##enone
slaughter
referrals
##omethyl
occurrences
##oris
arf
hut
ducts
bmscs
consulted
masked
publish
milli
jugular
tetrahydro
##foli
aside
pertinent
bisulfite
gq
##aline
##uel
cameroon
uncovered
biosensors
shaft
##eh
outpatients
guanine
##phaly
intronic
hysterectomy
numbered
littermates
salvage
bout
##etine
boiled
ionizing
identifiers
pmt
0020
321
##rograph
p62
dressing
cy3
attrition
loh
20th
midwives
##esophageal
cosmetic
zf
ggc
sibling
psp
##oxys
caloric
emphys
caring
calend
##×106
prod
##obulin
##atility
h3k9
practic
sales
##ln
##5y
catalys
oxo
motions
inert
369
lessons
resembles
biodegradable
orr
##ouracil
##hepatic
sha
milling
##pray
##isinin
347
scrambled
349
primord
mainland
bug
lining
##clone
uncomplicated
nem
shah
amines
unic
speak
gonzalez
cholerae
bureau
myd88
lipoproteins
##rb
intrinsically
iat
##199
framesh
abrupt
fellows
transferrin
microorganism
##core
clc
transferring
consented
committed
##vision
kinematic
endosomes
holder
cava
egcg
##roscopy
upright
##orrhiz
midgut
lighting
tibet
##assays
employs
glasses
noticeable
spars
##quinone
cid
restrictive
##otechn
##ugu
perfectly
mobil
duty
hts
##acies
quaternary
ruled
glucagon
cdnas
japonica
antidi
vena
linkages
medically
wolf
breakfast
wei
dermis
territories
##cris
393
##mes
endoph
bins
tki
collateral
##ocaine
sweep
arithmetic
amend
647
morphometric
ppd
1967
discussing
ict
martinez
##urities
electricity
mannose
multitude
nh3
deuter
##position
unfolded
gambiae
790
southwest
iteration
aband
525
##ocystis
078
reticul
radiologists
deliber
musical
##cephalus
seropositive
cga
##ophyte
aetiology
cili
browser
50°c
ns1
remodelling
mns
##168
##000000000000000000000000
purchase
##urine
dentis
dithi
dispersive
##uximab
aboriginal
##f7
proteobacteria
preoperatively
##ulants
h1a
mexican
cochlear
oryz
contrasts
religion
isomers
bnp
amps
zhejiang
##00000
##oconstr
##phase
000000000000000000000000000
catheterization
possessed
bass
0000000000000000000000000000000000
disagreements
whee
dnm
lycop
propyl
inactivity
cong
tails
ced
##agat
yunnan
prl
cowork
rx
educated
spaw
wl
brings
##cht
arbor
unemployed
b7
fores
subtraction
##342
intrad
outgroup
kev
##epsin
trimeth
##ittance
##294
pav
shotgun
club
percentiles
aza
##uler
hydrophob
mercaptoethanol
taper
adhesions
##respons
ovip
coordinating
physiotherapy
caco
351
advisory
##oplatin
##odermal
suspicious
forens
guangdong
hyperint
zhong
ferric
##ube
apolip
##ervation
dentistry
rts
uveitis
eclip
pragm
factorial
depicting
##etermined
ji
perennial
##233
predominance
4°
anorexia
exacerbated
sorgh
recruits
acryl
selectin
2r
proceeding
##ticles
##ultured
##iof
curated
inflamed
371
stric
hydrocarbons
455
pcd
divertic
077
planted
gpcrs
##oi
u6
##tebral
362
rodriguez
950
convergent
##yme
##ytes
##hran
mbc
##anil
plastid
tst
orthopaedic
25th
inertial
lank
retroviral
1966
semiconduc
nonh
pml
regurgitation
hens
oxim
maneu
rigaku
editorial
##156
geometries
lj
multifocal
chf
delt
mfi
normalize
gob
multifunctional
rotor
fingerprint
unsuccessful
antipsychotic
##cor
6th
opposing
snaps
1table
moore
pharmacology
##uspid
transcriptionally
proceeded
amox
074
revascularization
neurotrophic
##ighter
deser
##apy
shall
##etis
asb
yb
2π
judgments
psc
sarcoidosis
de3
hoff
anger
##opar
belt
pns
chaperones
mmt
questioned
≥5
phyto
oxy
controversy
##yric
concaten
arguments
inherently
##±7
antagonistic
##oning
flt3
resolving
##umatic
obstetrics
407
397
electroencephal
lw
##ulins
nanofibers
exposing
mars
exacerbations
fusions
tenderness
comfortable
eosinophilic
employee
threatened
taa
ccr5
converts
7500
##etamine
acth
heatmap
hq
eyel
grids
45°
nach
##rosy
astrocyte
p27
gleason
postpr
pfam
equine
411
incidences
amphotericin
pelleted
##303
outstanding
##n0
diurnal
##acylglycer
eco
facebook
imperf
vasopress
p300
073
##enzyme
synonym
pacing
landscapes
γδ
shrimp
tech
phyla
hypothermia
tcp
mib
aliph
exo
mif
meq
arabin
shs
brush
ripening
inclusive
thymic
sps
jl
vp1
traced
gα
hydrodynamic
##argin
combinator
##ellate
##ineral
##aska
phosphatidylinositol
stew
intuitive
brackets
##ureth
##ermal
##oliosis
##otropin
##vities
nocturnal
uniformity
rav
yuan
congo
microch
debrid
##789
entang
bamhi
traction
##ospec
skim
1k
prednisolone
##heet
thri
python
##atre
biomaterials
##rn
endovascular
wik
gpi
bubble
peculi
phenotyping
stopping
wer
##jan
##etent
caesarean
statac
coomassie
carers
mountains
cycler
internationally
congestion
##3d
glia
utilised
gra
404
9500
modifiable
laying
intensively
interdisciplinary
sns
tie
ulcerative
399
hirs
##ropylene
agt
simpler
customized
inhomogene
retrieve
intravascular
decarboxyl
contraception
etiological
bifurcation
sorghum
rhinitis
##alin
dz
##ront
##eca
gvhd
tig
closing
fisheries
fibrom
heights
hemolytic
ttg
429
##ionate
pristine
##agas
kinet
fragile
herds
habitu
biosensor
transitional
tdt
flatten
superimposed
inpatients
##aware
jointly
accumulates
##ropo
manass
autocla
adsorb
mycobacteria
statacorp
halluc
logis
enterococcus
metad
qualities
##ulary
qing
1965
##rene
tmz
cholangi
starved
stm
myopia
occlus
caught
chloroquine
antiplat
rhizosphere
dies
endometrium
laryng
##kk
inconclusive
passes
fumigatus
lymphadenopathy
invade
isopropyl
##omycetes
prs
xylan
sorb
zamb
strikingly
##ollen
classroom
rewards
##ystalline
icr
guides
focuss
ema
##hips
millil
tka
μs
##atectomy
##eliness
ambion
zm
##emann
occupy
resembling
simplex
##yclic
##asa
hoch
tfa
bioch
##ells
505
##uded
sow
770
##ortem
jaund
##orhabd
##istinguish
superconduc
3°
555
##onto
bodily
072
##ulous
##ultural
oxal
seventh
ric
fundament
##008
radiol
##204
403
increments
##lys
toe
jord
spc
nothing
causality
snack
fuller
402
##etting
edwards
eos
implication
##009
##stand
##vular
bactericidal
dizz
permeable
sos
unt
grounded
flox
impurities
acrylic
##onald
fertile
police
isotopic
0023
smoothing
tehran
myocytes
v0
phi
timeline
610
k562
gadolinium
aliphatic
posed
acetab
coworkers
aflat
iptg
##cross
c0
bland
pph
shark
071
rhesus
seat
prostatic
zen
##ington
polyvinylidene
opaque
integrates
zt
holistic
isothi
attribution
determinations
multicellular
##elo
pharyngeal
hpr
##oprote
##m3
affinities
##acker
twitter
syncy
35s
pant
sudan
rhythmic
infarc
sciatic
##aser
prostaglandin
endos
076
cpe
tonic
retaining
interpretations
goods
pps
snapsh
##cnt
eclipse
##flag
eighty
enterobacteriaceae
##atr
positional
erythema
392
milten
ivig
succe
acetylated
##amino
proteolysis
advancing
haemorrhage
423
repeating
syd
##urry
nhanes
paf
##odomain
dizziness
twofold
micelles
endosomal
solute
periton
settle
parsim
usability
anders
agglu
cytoker
##attr
ccrcc
##oxib
girl
manassas
reasonably
narrowing
##450
flanked
exploitation
intrath
##inol
php
compass
affordable
spiritual
renin
igfbp
fathers
##007
peanut
##omib
fractionated
##icit
disappearance
homologues
fossa
aneu
acidification
lasers
elevations
dac
arena
stemi
unpredictable
bend
insignificant
##uronic
punch
##coming
nucleoside
styles
tmd
enclosed
listening
anthocyanins
repaired
newer
digest
cardiomyocyte
##h3
convinc
pyrosequencing
##159
##oxetine
lysozyme
interpolation
cryptic
sequestration
periodically
crime
retroperitoneal
refus
coiled
justice
buch
433
amoxicillin
##x7
citr
approximated
returns
trpv1
maxima
francisco
gith
conidia
minimization
marriage
motile
calendar
inducer
simplest
postprandial
nog
thumb
ncds
##idus
deposit
##amol
rac1
canals
bethes
cytological
denatured
dvt
nile
delineated
nont
0027
afforded
polypropylene
leprosy
aptamer
cereals
parenteral
391
decompression
hbe
pc3
unlab
balf
mildly
deparaffin
congruent
b4
allosteric
##×105
antimal
##ifolia
miy
decap
predictable
wedge
autocor
408
##caag
cracks
5x
amenable
##inin
##sten
carbons
pages
shop
clp
##elph
anthocyanin
##−x
axi
attraction
leiomy
##iba
boh
##anta
mine
yolk
save
##uti
##station
yt
neurobi
locked
delph
vocab
bethesda
hwe
kam
cpgs
##viii
##eptidase
filler
lambda
##h6
terminator
##ugia
##orep
expense
sequencer
lignoc
euthanasia
behave
##castle
oat
erythematosus
numbering
victoria
##131
dinucleotide
amy
394
foil
immunoprecipitated
discern
appointments
shand
hatching
cartr
electrophore
ciliary
##utz
diaminobenz
cu2
richard
tia
##abetic
tgt
c24
vire
##istinguishable
github
tanks
##vertebral
combinatorial
aphid
4f
laterally
chronological
burdens
##165
fog
msp
hematocrit
##226
jiangsu
sting
flavor
##167
fpg
##h5
cl−
hypothesised
apache
hydraulic
fid
azide
nls
beverage
reportedly
torr
hyphae
499
choi
424
##gma
htn
subfamilies
citric
mitigation
za
neurocognitive
tocop
nice
russian
dai
boron
wasting
0024
##orus
stomatal
genders
preh
nip
amsterdam
malformation
mammography
sulfide
tocopher
celiac
75th
barcel
plasmonic
phagocytic
incentive
relapsed
airborne
sang
##fluorescent
sga
sers
noisy
depict
carboplatin
feng
##±8
kines
xb
normalised
mta
ischaemic
incidental
##iensis
vet
lun
modal
funds
officers
scoliosis
equals
##acillin
harvard
##dg
shaken
##ombic
approaching
ccl2
modulator
427
enterpr
relational
physiotherap
inferences
mannitol
ethylenedi
brightness
grants
filtrate
##135
nfκb
##zers
parenthes
lonza
m6a
anthrac
metron
##146
##oors
polish
##gp
alkali
jaundice
innovations
orphan
amoe
pab
springer
##134
##level
hsd
##149
nascent
disposal
grafted
eif4
retrotrans
fluorouracil
blend
beetles
cholecyst
immortalized
complaint
cdr
culturally
het
##imoto
trivial
##azan
cantile
mep
conceived
parentheses
commenced
##qs
##enburg
integer
##relation
##10a
responds
horizon
adversely
denaturing
##aci
cortices
downward
rage
δδct
glm
oldest
dnas
##iagn
438
fao
##body
receptive
gulf
##strom
infiltrated
##ubiquitin
##gative
mucinous
nup
entre
objectively
invitation
sapiens
glacial
kh2
barb
khan
convolutional
##pred
colistin
ocd
zw
pufas
bigger
pvp
cfp
hone
rhoa
arose
externally
##tri
hbss
desert
##ctct
pacemaker
zs
e4
##aban
checks
fuels
jj
ninety
cyclohex
electrospray
##c12
newcastle
##afe
lia
anaphyl
s8
specially
cd11c
pitts
0015
ribose
barcelona
0026
longitude
fabricate
darkness
ccl4
uvb
rpa
spastic
suction
eid
##uh
metabolized
glyceraldehyde
vortexed
bioanalyzer
cd68
meningi
uneven
accomplish
disclosed
mendelian
##phenyl
##osable
unco
headaches
##rad
debated
splenocytes
##flies
tolerate
0014
wats
##rα
##ongru
##thi
bubbles
pector
incoming
micropar
forensic
##urn
aβ42
##148
##onsin
409
ubiquitously
prefect
offline
beneath
##albumin
isoprop
leaflet
##inia
asexual
kos
##rum
brook
buffers
steric
operates
veterin
miltenyi
mall
dimensionality
511
##169
interruption
##isia
readout
destination
misdiagn
dash
h18
##■■
mites
0029
thicknesses
##ocyclic
079
peritonitis
##idea
cream
##rip
antiplatelet
fio2
99m
etiologies
owned
compartmental
neurotoxicity
sra
palpable
asparag
facilitation
catabolism
shadow
meso
o157
522
##ifl
practiced
terminally
##phen
##dehydes
inefficient
eradic
sold
495
gavage
lexical
practically
##iferous
colorless
fluency
##±10
nonf
##etta
dissatisf
depended
toy
##eni
##achn
fight
tunable
0028
432
nonsense
irrig
simulating
asynchron
chances
503
schmidt
refugees
##ectic
plankt
vertices
carotene
##308
ada
##iscus
sichuan
transcriptomes
980
cch
bang
generalization
svr
joined
harsh
coils
##artan
##asure
incongru
nscs
firmic
erbb2
##agers
3g
##inois
428
##flex
chord
##μl
ppg
486
indistinguishable
anhydr
##trated
editors
dichotomized
merist
buffalo
hj
pedicle
teen
emphasizes
hydrate
epstein
0017
sunlight
masc
##amides
grassland
trough
holotype
453
uplc
sclc
hash
neurotransmitters
assimilation
classifying
hemagglu
readmission
wisconsin
brist
β3
lubric
sensitivities
serogroup
##cre
436
exploiting
eus
emphysema
epiph
biocon
bioactivity
patterned
mam
thrombotic
ogtt
##508
robots
sinusoidal
persists
fascia
##ipher
binder
slic
xylazine
rrt
overlay
##annel
stents
etop
##ystals
##inski
egta
##estone
e0
##okinase
recrystall
receipt
477
gmp
relay
confinement
##enstein
##phy
arrowhead
cetuximab
##gow
speck
galectin
lund
osse
nociceptive
##cc1
568
xm
##hpo4
ncrnas
mhealth
hampered
coales
attract
##ocratic
earthquake
hydrocarbon
gtc
endonuclease
##itidis
monitors
406
422
##olo
producer
451
feeds
kh2po4
michigan
outper
hyperther
sp1
acinet
pgen
≥10
drinkers
dollars
##trum
neurite
planting
simon
montre
gdna
larva
stains
collim
##187
rnap
##ashes
allo
legend
##actam
firmicutes
safer
ovid
cpb
discipline
publishing
ecori
pyrrol
knees
rer
fluoroquin
metadata
ladder
wright
dystrophy
populated
miscar
drb1
475
##ochemically
osteotomy
tpp
cm−2
photocatal
##with
bromo
rendered
underpinning
##cz
trn
stat1
##ca1
##152
glucuron
virion
##van
benj
urethral
epr
centrally
##azep
##±9
mog
infiltrates
##har
airflow
immunoreactive
barrel
ucl
−8
yp
##ofen
083
ulceration
psm
ivc
p7
535
0018
duck
ambiguity
amniotic
##dx
eleph
regressions
illinois
dls
diaminobenzidine
cbp
421
##2000
−7
##oba
##iry
lipophilic
molars
exhaustive
montreal
2050
##nic
##fb
peaked
overlooked
metas
7717
##born
coloured
hydrophobicity
dissolving
casting
recurrences
autistic
peculiar
transth
neutron
antec
postmortem
masking
halogen
insecurity
##oglycans
carboxylate
##375
synthetase
##tins
framing
forceps
##aggt
munich
acinetobacter
xj
473
evaluates
continent
homeless
phonon
analgesics
bacilli
ests
trou
predetermined
##uta
##zomib
transformants
peroxisome
##omegal
peerj
gates
rmsd
unidentified
asympt
##illar
sy5y
oedema
##ige
unexplained
nsc
fixing
seb
breakthrough
exciting
rug
rbp
##bin
metastas
vwf
tung
iacuc
cannabin
fwh
ribo
dihydroxy
fe2
cb1
##itazone
immobil
##iazole
internalized
lapse
epithelia
alber
strugg
strokes
competencies
nif
##rofen
contours
##do
submerged
##fin
spt
perivascular
##174
ceramide
##ceptive
failing
##adap
##obar
##bv
vegfr
consort
calorie
0030
informants
succinate
pharmacist
switches
artemisinin
varian
gtg
passaged
##enson
kiss
##iden
##184
##ras
phytoplankton
gefitinib
perez
norep
localisation
clop
obligate
novelty
anionic
paralog
incidents
swollen
visibility
pcb
artificially
metaphase
##opolymer
ires
naming
universid
spill
termini
accidental
##space
circrna
poured
adequacy
##ontally
ajcc
cryptospor
etoposide
binge
survivin
mastectomy
layout
spark
toolbox
overlaps
acted
gym
urothelial
s00
resonances
gos
amplifications
670
##grass
heal
chewing
watson
photoreceptors
eoc
##orge
proteas
responsibilities
##ocortical
cay
##atgt
##azin
thinning
##136
##rogl
oxytocin
certificate
brachy
benthic
gord
absc
serr
disposable
pragmatic
##atsu
infestation
butyrate
acclimation
##c4
##158
james
fps
genet
underestimated
dysfunctions
sof
tough
pach
##standing
pdi
exfoli
mismatches
ffa
heterochromatin
##oking
##ysiology
glandular
newton
cai
penic
bert
0019
pleiotropic
radiologist
cathepsin
intelligent
clothing
pollutant
##aciens
pta
lactamase
y2
homocysteine
resistivity
lx
emr
poster
transaminase
schedules
ital
cgmp
fentanyl
corals
norepinephrine
arv
viscous
mortar
crys
##rice
apolipoprotein
0036
neovascularization
##anners
allergies
501
1960s
vasoconstr
shelxs
continuation
dormancy
##atgc
445
onwards
s1p
sustaining
compliant
m−1
1080
449
ideation
lepid
rotations
##ject
routing
conspecific
pbl
admix
erythroid
appendic
yin
opens
cd2
classically
pediatrics
gastroenteritis
mik
wald
attempting
##tronic
pdc
lns
digestib
840
wafer
conferred
##onephritis
adapting
ers
metabolically
updating
448
mvpa
rockford
experimenter
elucidation
##ups
bcva
cytomegal
hcp
stacked
8a
toronto
gathering
igh
kas
##aturation
tubule
chb
capped
complementation
##comings
capsular
bedside
shortcomings
debridement
tryptic
isometric
##actyl
raj
497
phosphorylates
##inting
##gus
##onazole
crystallinity
##entre
utero
11c
c23
extensions
##153
snvs
465
quiet
powers
##ofil
hysteresis
oligomerization
nigra
437
426
##iazep
visco
examines
synten
≥0
##imeric
organizing
cyp3a
exceptional
##itates
intercourse
losing
7b
bariatric
##rooms
##allic
plasminogen
##lycaemia
timp
bont
kx
cory
glc
callus
fauna
compelling
sickle
counteract
reorganization
##esting
##acyt
d0
bci
aldosterone
awake
bleaching
chalc
##vey
##opropyl
butanol
speculate
wong
492
cones
bacteroid
expenditures
mdscs
encr
caspases
##uzz
hyclone
centrality
jobs
tkis
sanch
##opsin
numerically
ceftr
halo
eic
##ogel
28°c
shells
##lei
bilingual
nivol
choroid
singleton
retinoic
##ocarcinomas
glasgow
agr
notch1
fcr
precondition
##athic
##206
sell
danvers
##hy
forage
technically
books
fermi
doubled
##tert
##aj
ketone
##unsaturated
##psc
habitual
cyclospor
lysosome
benjamin
##apes
grounds
shandong
eighteen
jf
workup
aesthetic
##147
##gotic
latex
nivolumab
##prop
tort
dwell
##ogluc
##axin
intimate
##144
adducts
jurkat
##kines
microalgae
inaccurate
rbd
tace
dms
medicaid
mean±sd
clath
ceftriax
pharmacies
beer
ou
collapsed
##idem
##g0
458
084
##m0
isoc
tumorigenic
##astigotes
##idomide
##high
farr
defenses
stance
keys
088
lett
fcγ
##ormally
##otyl
##timulated
cephalospor
dropout
confident
computers
##175
devoid
nitros
dunn
730
estimations
pollination
hotspots
##q2
##atergic
impulsivity
spur
0034
quintile
##oalveolar
hydrolyzed
balancing
##154
microtiter
085
punct
outlier
##164
##lotinib
8th
s100a
sert
##eley
suppose
αs
##205
##536
55°c
frameshift
##lines
polyunsaturated
paa
thermally
pheromone
bears
dentate
immunology
dntp
peninsula
koch
rs22
10a
television
colourless
finnish
eventual
trout
shelxs97
myri
radiolab
histopathologic
##ocarb
1i
##cv
vibrational
kaz
iz
defer
bites
jolla
##eptin
cd38
furnace
rosa
ags
bounded
multilayer
consultant
tars
abbreviated
parks
jul
##oints
foli
simulator
comparability
arachid
ahead
isothiocyanate
h2so4
constitution
##elioma
3m
emd
##ishi
086
deconv
jordan
huvec
pik3ca
##def
ophthalmology
assigning
tos
subn
tta
glutamatergic
##ellin
srr
moz
arrive
dimeric
tetrazolium
##owa
flavivirus
gets
mack
##uu
proceeds
pens
heading
discriminating
memorial
cytomegalovirus
ceftriaxone
unequal
##vier
10000
illuminated
kif
##imm
pnt
discordant
hint
##ieux
seism
leon
ours
##cr1
notification
##inearity
ppat
##astin
decor
erythropo
abrog
milieu
planktonic
cl2
##ammonium
##166
anonymized
mammal
##tigraphy
##idino
huh7
##iflor
phones
##258
##abc
stev
acanth
##oken
intracere
udp
medulla
iol
restricting
reimbursement
rehydrated
cpc
rcs
so2
##romagnetic
627
n5
yc
midbrain
coexistence
sip
ata
bdi
premix
456
mole
isopropanol
rao
ppe
scripts
adipogenic
elucidating
autocorrelation
##ulosic
founder
rrs
ch2cl2
misfolded
seldom
chromium
nhej
illicit
##kr
sgc
geological
styl
nf1
jb
homologue
hypermethylation
unexpectedly
impulse
087
##otracheal
swarm
epcam
pid
960
vene
##wal
##olon
principally
h3n2
notation
geometrically
brucella
synch
434
inevit
##473
outre
ding
##cription
universally
cach
npv
##essel
pulled
htr
inevitably
##omplex
agrob
##207
flowing
luo
uav
decipher
tym
transpl
sewage
fluorophore
##ofibr
mons
marking
mao
attenuates
austin
exertion
h3a
boc
carotenoid
##erating
##thetic
gtpases
pvc
##don
hedge
lil
##bg
fru
mbl
settlement
chemoattr
psychopathology
clut
ventricles
gss
gist
opn
exchanged
shelter
##anoic
discharges
bloom
syll
nanocomposite
triterp
##alf
fecund
specificities
oxygenated
discusses
##erea
##asters
##ccs
cytokeratin
intrahepatic
horizontally
successively
ambul
perk
spo2
pepper
tolerability
agron
tagging
adopts
rad51
gallic
##alid
##etus
citrull
leukemic
sche
copyr
replicative
macron
##iformis
scru
secured
rail
sintering
506
##ometabolic
caen
##p5
##lysis
546
conferring
##ophyl
##142
##utations
##agtc
##ggtt
##uclidean
hindered
densitometry
466
##ogenetics
474
089
affiliations
spider
euclidean
##rotected
sponges
examiner
5×
##rv
vz
reliance
delineate
dad
hmbc
lars
toolkit
lai
catabolic
berry
enumeration
helicobacter
qrs
##apar
justified
zeol
divorced
hypercholesterolemia
indol
##188
transist
dlp
indel
impregn
stockholm
discoveries
vine
metalloproteinase
nect
##ulph
cinnam
tetramer
5s
fiss
apcs
quadrup
##idog
##198
rooted
hog
errone
plethora
##idian
difluor
delim
##kan
inbreeding
pmsf
##away
oreg
qa
##μg
##assa
vacuoles
vend
444
hematology
##hem
##atases
##178
compress
puromycin
hypoc
nmdar
wako
##hand
hydrated
unint
jama
qiaamp
2°c
voltamm
penicill
schne
##ibus
degenerate
supra
loxp
seer
il6
dosages
appreciated
banks
##kar
archaeal
##agraph
mori
ara
##ocompatibility
exos
encycl
administer
cull
globin
ovulation
##yletic
preex
glomeruli
081
administering
609
##erver
inward
513
##eners
##tizing
alve
voltages
indica
trigem
sarcomas
##tica
drag
pcm
scopus
stakeholder
invaded
s1c
quebec
stars
hpv16
mems
##asco
diction
096
880
##ampsia
phill
pittsburgh
nephrectomy
instruct
493
radioactivity
##acca
heritable
stn
483
granulocyte
chapter
##icus
shigella
##290
brassica
ille
fernandez
egger
##kel
uncou
tears
##ictus
##143
extravas
concordant
seemingly
##uga
fwhm
glutamic
weiss
##tegration
504
##elong
2013a
oscillator
outreach
glucosidase
##uese
lift
##odiazep
abts
dopa
usda
vpa
##elor
equality
508
vign
clinicopathologic
oryzae
##orpor
faith
maz
##edics
##ectral
##235
ginseng
439
elaborate
vsv
##otecan
happy
dating
triad
biofu
##oxidase
gyna
p6
##oleic
anatom
dissipation
millim
uncons
preca
griff
conical
##bel
biod
monoph
tol
ottawa
natri
hcws
aseptic
082
waveforms
overproduc
mof
ortho
mins
##calibur
mirs
ils
sprou
cu1
thymidine
sharply
foodborne
##atial
approx
rever
g004
##cta
##took
dialog
##177
##2425
##ussion
##olones
raw264
tbe
conjunctival
phonological
facet
##ye
inductive
overwhelming
heard
denied
hcm
ameliorate
##ermined
functionalities
rhodamine
scfv
readiness
624
phylogenetically
intentional
##ean
stall
633
##erv
radix
emerges
turner
vocabulary
hotspot
coexp
macrol
agenda
502
jurisdiction
peep
erythromycin
sdf
legumes
waals
447
##ravel
herbivores
cheap
simplify
cld
##arose
##itarian
maxill
circuitry
dxa
utilisation
##requency
ugt
nuts
therein
judge
aad
psychotherapy
gastrectomy
fanc
adjuv
lined
fluoresc
dispensed
correspondingly
visu
760
unemployment
pso
workshops
##rm
resonator
microin
compositional
iri
d5
pao2
##emsa
##atri
serocon
lidocaine
bringing
whites
70°c
quantile
juveniles
##sulf
##800
asians
##razole
acutely
496
membranous
−9
breadth
ultracentrif
ptr
extraord
permittivity
jd
spermatogenesis
##ogenicity
24h
##atars
##oprim
mite
##g3
##opt
unravel
fmd
dialy
bomb
494
propagating
n6
498
minnes
ys
trin
discretion
aptamers
kinematics
##opod
##igenin
grna
homogenization
suggestion
sunny
naphth
philippines
##olymph
##opos
biggest
##acaa
perl
##olytica
neurosci
595
atra
##yo
violent
pyroph
medullary
monetary
bai
economics
propos
clearing
powdered
imt
ucsc
lactis
i1
photonic
phospholipase
imprinted
##idogrel
1°c
biocompatible
xyle
##iano
assemblages
laur
unsatisf
troch
verbati
bisphosph
feedst
laparoscopy
vad
ppis
brood
sofa
extractions
multilevel
alto
hemolysis
##olyticus
antidiabetic
robinson
lanka
charls
##ocarp
retraction
##orfer
internally
##omatosis
syng
copyright
##elmer
ttp
clopidogrel
agn
eclampsia
##nut
mgl
shir
##insulin
##tinence
simpson
undertook
##234
constituting
gynaec
familiarity
sydney
steroidal
bullying
portuguese
cma
surfactants
nicotinamide
mbs
##3c
jung
ppr
##rem
prevailing
globular
786
oligosaccharides
interspecific
practicing
pipe
ruminants
n50
cyn
erlotinib
realization
cgc
−12
info
##cranial
transmitting
ksh
##ospatial
agrobacterium
venn
pharmingen
postin
509
giemsa
##rell
facets
biotec
y1
##cephaly
2014a
467
ota
replications
soma
wings
opto
##olymers
ssi
bog
mfs
n2o
minnesota
anxious
##etit
lrrk2
∑j
457
partnerships
528
pahs
introg
##anto
welding
##onent
sct
paramount
094
ribosomes
inev
zi
##fit
mansoni
dall
gp120
chur
protozo
431
temporarily
sider
rss
hym
seeks
advertising
nfat
unspecified
0021
e−
unaware
##mel
undertake
contractility
##al1
crystallography
##absorption
##romic
kbr
##otent
breakpoints
permeation
rocks
459
perkinelmer
aluminium
cars
erl
fap
rainy
relieve
heightened
tune
##488
benzodiazep
##201
happened
arrested
zambia
eri
gynecology
icg
##oub
##q11
competency
stacks
##kc
chs
hungary
exped
oleic
464
sepharose
superiority
xia
hads
campbell
peptone
harms
##atta
fats
adams
##omatis
##301
packaged
sene
contag
registers
restoring
##axanthin
herbarium
tendons
sacrifice
dup
weed
biphasic
##andibular
hemip
valvular
adenocarcinomas
georgia
flooding
##wer
ntm
##elly
bait
loadings
chu
ppt
glycosides
thai
2015a
malarial
pumping
##n9
nsw
phyll
adamts
nanotechn
pdr
##eryth
cd24
installation
isothermal
mantle
concentric
speaker
overcoming
intriguingly
plotting
##jd
##idum
fundamentally
technicians
nim
##where
specialties
utrs
manifests
aspirated
epigen
##orhabditis
##acute
xho
##cycler
1400
aldehydes
##bp2
reconstitution
excellence
requests
pparα
invertebrate
##apure
pads
452
##enhagen
scrutin
##amid
communicating
metazo
nanosheets
##abi
envision
liang
pbst
ternary
capsa
prur
##256
mol−1
unintended
##tinum
##udine
tams
scott
heteros
rs7
sanchez
nws
grinding
germplasm
##js
sapon
hemangi
heuristic
463
##phere
resins
phall
aminoglyc
wo
iiia
ym
acg
446
prothrombin
tiny
##lla
s2b
manipulating
tetramethyl
hydrolase
##othermal
ctv
telomeric
##xa
bragg
489
443
stereotactic
xenob
h−1
viscoelastic
negoti
##anna
disrupts
capsaicin
nitroph
##ulence
genech
gingivalis
aggressiveness
##ilance
chimer
imip
441
6c
upps
responder
thalassemia
asm
##ospital
endotracheal
##aggreg
##erts
##americ
intox
midpoint
accreditation
expenses
kum
##igl
g6pd
14c
spirometry
##404
brucei
hhv
colonize
##opedia
durability
##fection
crysalis
epinephrine
amyloidosis
pigmented
maximizing
appe
displacements
woody
haematoxylin
puc
cfdna
steering
asthmatic
anesthesi
disks
##ialdehyde
bru
vsmcs
##aginal
chagas
628
ly6
remnant
murr
flair
lst
622
##ampling
notif
hydroxyp
cadaver
unevent
##onella
serp
recombinase
autoreg
antimalarial
electromy
lda
chlorine
equivalence
617
arrived
underwater
indeterm
luminance
paragraph
spraying
860
##506
##nss
shoes
unexplored
relapsing
abnormally
nid
##analysis
nta
ascs
owner
butt
gii
hend
##omm
administrated
associative
098
trimethoprim
watershed
##ateness
beach
##vp
lacc
borte
tmb
draining
h3k27me3
lis
educators
intoxication
10×
##icl
esd
adt
##chip
shade
removes
myogenic
decoding
0033
polished
##aws
a5
microgr
rdr
≥50
stunting
fluorescently
foxo
##come
stays
##baum
relapses
cantilever
immunocytochemistry
##wald
##tina
##arius
organoids
##1920
487
imperfect
##adren
stoichiometric
##oposterior
0037
aurora
membered
##iagnosed
095
competit
mdck
oropharyngeal
stoichiometry
appendicitis
grasp
549
taf
commod
oligomeric
carniv
h0
##ophene
ipd
u1
effluent
slurry
##amy
disasters
renders
##ucleated
hai
myoblasts
uw
##olism
cpa
±sd
phenylindole
parkin
##isen
laminar
bortezomib
buried
sier
neurogenic
##entist
pfge
484
scenes
inception
lca
vect
reserves
acn
##uba
lifelong
transmiss
inevitable
##ch2
firefly
impacting
metalloproteinases
8°
hourly
nicu
lutein
gastritis
oxidizing
cholest
m4
updates
##270
microcirc
afterward
magenta
adipogenesis
inspiratory
rca
zimb
##hlh
reefs
pupae
pyre
newman
insult
intratum
abbreviation
prrsv
1136
worsened
10x
527
545
misuse
##231
##yang
escalation
lax
pneumothorax
permissive
liz
##ygotic
##otum
##activated
##≤0
##mosis
nuc
canis
##y2
fecundity
converge
6m
mys
unmod
pyrimidine
##600e
outward
clathrin
##rogram
fei
blastocyst
rhabdomy
mastitis
hmm
×100
retire
##arring
spf
polyphenol
##cel
##rologic
##as9
scheduling
##accept
vhl
constriction
exams
pm10
2012a
autophagosome
cuticle
ing
macromolecular
timep
##203
asbest
##osterol
americas
##n5
altman
grained
r5
schooling
##ggg
##fd
dsp
##xin
contraindications
penile
ulnar
infusions
3500
2m
comparator
442
##ouri
deregulation
undiagnosed
rin
recalc
##apoptotic
##bus
abstinence
propagate
matters
purine
queensland
unfolding
advertisements
aha
turbidity
consolidated
len
##ipine
##lers
omnibus
##aggc
1001
secretase
##sal
##onts
eros
nef
criminal
##rev
cardiometabolic
vocs
618
lifestyles
guest
staged
scand
##olium
copenhagen
exemplified
##ozoite
jx
thc
transducers
940
1961
mycotoxins
researched
##osaccharide
encyclopedia
830
runx2
heel
ql
690
mushroom
stereo
soccer
##oviridae
soap
rgb
queen
hedgeh
tumoral
botanical
trigeminal
bioassay
claudin
##tur
##odin
pmc
##cca
calories
9800
h8a
##1p
longitudinally
domestication
##ista
resta
##sey
s10
##cls
##196
##obase
npr
507
fto
necrotizing
publisher
distinctly
neoform
goss
##ached
preparedness
##therapy
hms
vertebra
476
entails
answering
hills
##228
ild
543
092
suffers
imprinting
coumar
mesoporous
##e3
097
##apatite
615
##uminal
hyperpolar
6°
##otin
10°
##rocess
cohesion
listeria
crab
electrically
cbm
transthoracic
##ported
intravitre
ecz
inserting
madrid
629
≥30
gramm
xie
spatio
osteomyelitis
seasonality
excav
papillomavirus
cosm
reminder
oriental
caenorhabditis
reflexes
ccg
gsk3β
epidermidis
quenched
oncol
parotid
analyser
hamiltonian
1024
h4a
pcrs
macaque
correcting
stx
beings
prosper
##irm
leukaemia
muss
abscesses
preexisting
azithromycin
ffq
tianjin
scarcity
##anter
disinfection
##incter
mef
pedestr
##zid
##mate
##ouses
deflection
bambo
compulsive
vagina
##tools
##abwe
replicating
stemness
zol
##odynamically
conventionally
##picuous
economical
##roids
curation
radion
textile
feeder
626
##gttt
jejunum
charlson
##anone
##yness
absorp
##239
wool
bry
fang
alliance
multimedia
immunocompetent
ply
536
taught
##amura
##trich
##tines
ncd
##anesulf
transmittance
nanowire
jen
alv
##±11
##represented
factory
substituent
progressing
093
proprio
mayo
multiplication
hydrochloric
##eder
##otube
##ventricular
senegal
spans
infan
solubilized
apexii
##oct
478
pharmacologic
clotting
##agaa
##tie
catastrophic
mutans
##beck
circumvent
happiness
t1dm
##electron
radiologic
admixture
##azolam
ons
dow
gif
m5
jans
morphologic
satisfying
bulky
##flavin
##zn
primes
##rov
amplifying
anteroposterior
empowerment
##thiazol
rome
precipitates
hemispheres
localizes
achievable
trus
##oft
qm
correlating
decomposed
529
whis
loud
plt
##laid
penalty
##5α
hyperth
##oplasia
gonadotropin
sugarc
##opyranoside
electrophoretic
xylem
summing
tackle
##ovi
dew
quadric
nelson
snails
flowjo
excreted
pericard
localised
prokaryotes
albop
##oviral
pathologically
clues
gear
restaur
rus
hca
091
debil
99mtc
seeing
washout
0038
1963
unresolved
equilibration
endocytic
fractal
palpation
stimulator
zimbabwe
##197
didn
bfgf
##hel
captive
##imab
479
merging
sterilization
bronchoalveolar
##ibrom
ida
##aver
##u1
cx43
ceramics
##hore
ps1
anchoring
sugarcane
crystallized
##flon
cpm
srp
##aned
##yon
lsd
wis
dilute
##terolateral
##229
ovx
v6
disabled
469
ip3
cse
##kp
plum
##cl1
worn
suzuki
inconsistencies
shan
trachomatis
c2c12
disassemb
lactating
quarantine
##umarin
waived
pmn
irritation
870
0035
occult
transmitter
526
rostral
concomitantly
chung
interdep
jensen
##ermann
epcs
urology
##254
oi
k3
462
rfa
##bury
##icated
thicker
##vet
smd
damping
broiler
mueller
fcc
permanently
enth
##anmar
lingual
dntps
##veness
cleave
sieve
cyclase
swing
melanocytes
##ulu
inconsistency
palo
stressor
kob
sss
##iq
nucleosomes
mva
diamidino
reasoned
myocarditis
literatures
##kg
##ropr
##2o4
homing
##itonin
climbing
phq
##arious
##tisone
ultrapure
ddh
greek
jas
##linic
hemostasis
denominator
h20
legion
##ilia
calcified
advancements
sect
##567
mathworks
tubing
cuts
cxcl12
astrocyt
scl
x0
##aturity
unlabeled
482
devised
##189
chromatograms
##olase
champ
serovar
credit
scarring
asphal
585
nq
ceft
524
##aer
0039
masson
cable
##oco
523
##onous
tmem
electrospinning
albopictus
whatman
spleens
##olines
mcao
potentiation
echocardiogram
pna
compuls
##pa1
uppsala
cotrans
lcs
suvmax
transd
coordinator
##forth
tdf
cereus
packet
audience
##ophor
##tsch
toxicological
marm
##acct
sensu
sulfon
kshv
gastroc
aln
antin
dst
##arine
##151
ots
##rew
dominate
comply
copolymers
basket
##burn
##gren
jag
491
##domain
metamorph
antipsychotics
foramen
amber
pacbio
immunostained
##idol
northeastern
mediation
pubertal
sows
xc
beetle
fulfilling
binocular
aro
##aprote
toxicology
msd
calorimetry
##aman
##arche
carnitine
sund
hansen
oxa
payments
durable
myanmar
guil
hospitalisation
neoformans
675
##lich
unreli
mgo
reyn
ntd
ferre
refseq
topois
fsw
bandgap
mated
##anat
isonia
favors
phleb
##acttt
##idinium
40°c
575
bacteroidetes
numeric
urgency
interacted
helium
cyclop
burgd
favoring
synech
pdz
races
toxoplasma
dce
bacteriophage
d8
intral
##unctional
antiproliferative
cash
ril
rbm
##akh
sialic
ryan
egr
h1b
deregulated
sorption
overlying
tritic
digits
psychiatrists
abstraction
viz
oncological
ehealth
##rl
##185
sox9
t5
conceal
##x5
thalamic
suspect
sp2
##actg
ingen
unstructured
pgs
##ensory
533
orthorh
bbs
caucasians
minimise
hfs
scavenger
oesophageal
git
tricuspid
≥4
548
##rove
smi
granulomatous
knot
1962
stories
tbp
loneliness
gonadal
yosh
##anthus
461
transcranial
531
centim
shar
lichen
srh
slowing
phosphatases
rut
##iparous
xk
unload
dcis
meditation
orthorhombic
interim
operatively
mre
genitalia
s9
shore
biolog
21st
centuries
artefacts
extensor
##ostin
manure
##bf
affairs
##179
pouch
hunter
probnp
appropriateness
bayer
todd
pbc
presump
trimethyl
099
mptp
ppb
##econds
advocated
iap
renilla
dystonia
antit
uch
neurophysiological
concatenated
germinal
phytochemicals
oxoid
telemedicine
overlaid
topo
subl
iatrogenic
##grp
jim
parties
trehal
472
δf
ureteral
##etetra
spoken
chloroplasts
±2
##acaine
avoids
aap
dmn
ultraf
occlusal
granuloma
mpp
nozz
##efaciens
rns
outlines
ornith
postp
##inators
s160053680
isoniazid
##2627
##345
schema
nanorods
monochromator
nyha
hav
##timulation
##igned
undersc
ait
heterosexual
1q
avers
subar
participatory
viewpoint
521
evasion
craw
5e
##array
##code
harness
footprint
confron
##olean
univariable
donated
oligodendrocytes
font
neighborhoods
heroin
nebul
knocked
grate
820
pleasant
vacuole
farmer
exacerbate
viremia
##enium
##eav
cra
bob
##163
xa
kernels
arbitrarily
histocompatibility
asl
chicks
##arez
##enth
demethylation
subsid
dwarf
pressed
##fed
##openem
##id50
bronchoscopy
pipelines
infects
psychologists
skov
knew
sight
beans
##rowing
clsi
disadvantaged
guardian
banana
micronutrient
ecu
detr
symptomatology
acrylamide
timed
spinning
c30
mtr
forcing
dress
hect
##195
sweat
typhi
xiao
argu
unstimulated
sob
##bear
companion
ruptured
allyl
##imid
##α1
chong
##ar1
colorado
sunitinib
accredited
pemb
chws
alumina
symp
810
shortness
nav1
pc12
witnessed
bursts
alpine
##meth
court
immunofluorescent
macronutr
9°
verbatim
##ocations
icm
cafs
1l
transvers
hypoglycemic
acidity
catalogue
pyreth
slot
serologic
coenzyme
initiator
aphids
2016a
forebrain
ssrs
voluntarily
bioreactor
dalian
802
##uated
cups
nestin
stature
chemop
hopkins
##icola
quoti
opg
uploaded
##iliensis
pnd
##axy
spawning
cancell
delineation
##familiar
naa
oryza
823
##mington
asbestos
preferable
arthropods
hx
definitely
keto
##ikawa
actinobacteria
##usa
broadband
##opp
cort
##tles
##s3
wrapped
reinforcing
plr
ptp
970
dio
domesticated
ges
interferes
defensive
assembling
byproduc
623
prick
phenotypically
ntr
kk
##×100
1300
##bee
##urp
radii
hubei
cofactors
engraft
##echoic
##uca
##ternal
synchrony
adobe
financing
discontinuous
cucumber
##qing
##agner
zer
##ivers
ficoll
abundantly
peritoneum
isogenic
suppressors
optimally
laz
macrocy
interviewing
vat
faeces
indeterminate
hinge
561
##398
smoothed
beclin
lasso
2α
falcon
meropenem
retirement
manuscripts
mwcnts
landr
ascorbate
haplo
hairs
##iston
azo
471
##lett
h9a
##finder
hin
562
phillips
cdk4
##176
scoping
sharma
mq
clips
tacrolimus
palmito
##pea
##arboxylic
benefici
macros
##rian
cmt
southeastern
δct
turkish
sesqu
pharma
polio
1010
arn
angiosperm
zea
##onian
##foot
organize
mecp2
lae
cddp
chemoresistance
digitized
natriuretic
harbors
h7a
unfamiliar
lockdown
##erd
fna
swi
bootstr
unmodified
incap
##iday
##uretics
tones
ambulance
576
stip
immigrant
burgdorfer
##asaki
ev71
##isations
2i
ted
≤1
hbc
subarachn
annular
circumc
deparaffinized
22°c
565
##acylglycerol
monophosphate
chemiluminescent
##ofrequency
misclass
incompatible
6h
##yama
oviposition
1j
##ostal
demarc
htert
recurs
reposition
##osi
ipc
genu
cbc
tmt
##nex
diarrhe
nms
##oshi
unaccept
negatives
diuretics
transfusions
locking
computations
##esters
tmp
cd27
microparticles
encryp
virological
##traumatic
jacobs
ryr
malvern
p24
stec
481
dictionary
reconc
hib
605
absorbing
rdt
resides
cvs
zur
##wig
corroborated
##character
tied
##atct
symbionts
mpm
998
mmc
0040
bush
##oidin
permeabilization
drastic
rinsing
##vii
yoga
wy
##vol
cx3
##imentary
beside
dura
vlps
unsuitable
##183
##bj
bamboo
##gttc
rises
stretched
naked
##tetr
##othre
schneider
htm
cholecystectomy
ctab
ldlr
wilmington
ubiquity
930
##ainer
##ofacial
cryptosporidium
nephrot
valine
larynx
0044
pend
542
a1c
unim
retinas
oecd
punishment
rtms
gase
partitioned
7°
##lete
824
dependencies
##arter
diminish
electrophysiology
##top
burgdorferi
boolean
sputtering
##hang
springs
spheroid
alfa
eia
delphi
immunologic
scalable
sulcus
nymphs
pneumon
unmethylated
ossification
irf
mathematics
emphasizing
infrequent
1900
mpn
bioluminescence
##lessness
##ymm
pisc
##engine
deacetylase
idh1
shuttle
890
pum
##ansas
##encement
cbl
intravitreal
##13c
multimorb
camkii
tular
arthropod
gupta
intraspecific
h10a
wf
##olysin
embod
##onates
##xime
848
oregon
##β2
fluctuating
667
meets
complained
556
freund
##505
prolactin
stear
steam
pae
s20
##vr
##tedly
##ocele
glucoside
ca3
designation
slab
nanotechnology
dentists
##ac1
metabolomic
kdm
discard
sterol
triclinic
enveloped
propria
sphincter
mesoderm
parasita
teflon
misle
biting
dak
##etz
##utum
eru
pra
equatorial
illiter
tocopherol
maladap
lds
gerd
gynecological
gpx
achieves
δp
rear
remot
cassava
affiliation
contingency
contracep
igr
anaplastic
r4
sne
gastrocnem
fertilized
diphosphate
millis
##aters
anca
##pton
suit
nihss
≥18
brs
biomer
539
##ancre
titrated
w1
tourism
ctcf
schro
commencement
3390
modifiers
##pls
dsa
multist
##vus
##ysm
postgraduate
1957
##craft
intranasal
undoub
myriad
deciduous
hochberg
numb
peel
proteasomal
java
flaps
##iximab
##agging
538
oac
subch
indianapolis
syndromic
##urized
radiofrequency
34a
supervisors
resum
##erme
534
hedgehog
##math
crushed
c26
sbs
nkt
##ommun
undetermined
hemi
##2p
##194
granulocytes
npcs
spar
invalid
mucous
##ap2
nanocrystals
subarachnoid
##cii
prj
pans
banding
eliciting
ultracentrifug
contraceptives
ttr
keratinocyte
anything
walled
beng
establishes
dissolve
specialization
##tan
##h8
##otyped
−70
##alcoh
topographic
emergencies
##weighted
##343
##udinal
truncation
leds
schematically
lamell
2ueq
policym
eczema
##inum
aβ1
544
pockets
maxilla
savings
srnas
sbrt
disclose
##held
##aks
unintention
##ijk
choc
614
conversation
tlr9
##brand
connects
sake
##engers
##ontech
ya
neonate
idh
defibr
bhi
sale
ade
##aven
mia
biomerieux
20°
##rosarcoma
heterocyclic
wastes
baf
phlo
1958
##robenz
suis
fuse
tfh
gtr
noble
synthesised
ober
insula
aec
melanomas
volcano
cui
eric
workstation
interchange
validating
##roline
collector
dimethylthiazol
b0
disinf
haplogroup
hank
backcross
taip
destroyed
polypeptides
##vc
renewed
sourced
liposome
##uka
exponent
synthesizing
sierra
##enopausal
cyto
builds
endeav
casual
commons
αv
centralized
##aceted
microscopically
collectors
craniof
clontech
evd
recycled
##uw
##ulans
improper
567
##j2
chromatograph
##ucker
neurotoxic
optional
##agtg
2011a
612
578
hydroxyapatite
bouts
germinated
##bourne
c25
ubc
gastrocnemius
trimer
eqs
multifaceted
barely
updrs
pc1
thickened
surroundings
g003fig
assets
ovari
semiconductors
hgs
rit
athlete
officer
occupations
transposition
##3p
drilling
ron
cia
dnmt1
crowding
calcd
lobular
colocalization
camel
##orporeal
##orient
synchro
1959
chelating
hypoplasia
rq
h5a
demyelination
reacts
##thy
penetrance
##ipe
gsea
##±12
##onegative
finds
prr
tapping
unple
krebs
cav1
pla2
dia
emm
sandy
616
##adelph
pork
trx
nonsm
hematuria
##kov
##agasc
linoleic
rast
dissecting
hematopoiesis
saa
rb1
translocations
myofibroblasts
synergistically
##amate
occupying
isi
##ersed
pericytes
proposals
##181
decompens
allied
reminders
571
radiosens
borrel
cdc42
hyperthermia
circumferential
##observer
centrifugal
##issa
embr
cgh
hamster
920
elicits
assure
uneventful
calculates
trimming
mbq
pursued
hob
extravasation
##nell
crick
dormant
##344
ns3
##iaxial
genotoxic
inflated
wj
m9
tamp
t003
lunch
##iji
incompletely
h22
##tress
malond
klein
penns
brucellosis
thawing
photomic
viewer
unreliable
ha−1
ccm
newsp
tsb
arsen
drill
pioneering
635
extrapolated
tlr3
2h2o
eigenvalues
metronidazole
noradren
peptidase
gx
extremes
compromising
edx
rosen
##umi
cytoscape
cpap
bifidobacterium
exagger
mesothelioma
fluconazole
unpleasant
universit
burkholder
aversive
hugh
at1
formazan
xhoi
humerus
murray
3x
isoflav
613
marc
##rata
kinetoch
##aggtt
chaotic
sensations
distraction
##using
dialyzed
incar
tetanus
lyn
hdacs
mapp
mpr
transactivation
segregated
pennsylv
orific
scars
affor
541
##worms
phloem
annulus
dryness
##umer
quadriceps
berber
migs
wagner
##dye
gordon
##agga
formulate
worry
icus
rarity
collar
##green
##°n
##unate
##304
arachidonic
jev
involunt
asphalt
##at2
interphase
uta
##enko
chc
adh
alcoholism
shenz
oxphos
antim
537
vcam
routines
acetabular
##izability
##biochem
george
##x6
perturbed
submucosal
deformed
##trim
autophagosomes
##ophages
573
##309
replen
calmod
##aux
seaweed
basolateral
centromere
bran
pupils
lots
bits
801
friedman
rgd
spun
558
amphiph
nesting
dysbiosis
##urrent
benjamini
blastn
glutamyl
jers
lus
cd86
##288
##unya
polycystic
pico
acd
584
chemotactic
philadelph
sage
bipar
tertile
10−7
anh
extrap
##esthesia
smartphones
prox
##1δ
confluency
##road
predispose
##182
gome
sine
disconn
infertile
##abin
infested
sno2
pedot
quadrupole
##otrans
##aner
prostheses
##186
thromboembolism
transplants
##days
malondialdehyde
plastics
803
strengthened
birthweight
##inone
cube
65°c
grasses
miscarriage
##orespiratory
houston
adduct
neiss
##opoulos
temp
##yv
finishing
##266
##asin
restrained
cords
craniofacial
nephritis
weber
immunophen
preferably
hdr
pp2a
deriving
urtic
fgds
graduates
lq
gay
−11
stam
shank
577
marginally
occluded
cgt
cavern
ibr
podocytes
harbored
maryland
##oria
jelly
uncharacter
vk
exotic
pb2
bitter
enzymatically
callosum
##ilane
broadening
chemoradiotherapy
asser
##othermic
srna
##anoid
satur
landing
##225
r6
calm
##tiveness
hydrocephalus
naphthal
peat
fibril
##oproliferative
raters
foxo1
biologists
madagasc
608
exocytosis
##222
dpf
neurotransmission
ahi
557
accountability
iiib
revis
organised
creep
impose
accelerometers
##ounted
cambodia
arguably
proto
##escent
insults
##kinesia
mainstream
granulosa
##mu
substituting
forecast
##ilation
chondrocyte
irin
certification
##atechin
ricin
##m4
erm
aroma
osteogenesis
vaccinations
etoac
visitors
refusal
klf4
hypon
chromatogram
photod
intestines
rye
gloss
aligning
mlc
calmodulin
intraepithelial
rgcs
rgc
##igment
##243
825
645
hindiii
credibility
irrigated
pco2
polycarb
##olide
refraction
ontologies
reacting
cognitively
anticipate
tyrosinase
isolating
##chair
h7n9
midazolam
##angiogenic
##atem
solanum
##ostom
debilitating
undoubtedly
jw
gaseous
ddt
bentham
isr
asi
ms2
hapmap
##h10
ert
cme
##192
fasci
erlangen
philadelphia
fee
990
##ein
endosperm
p50
##lot
##iatus
fim
storing
fortunately
corticosterone
##br3
##ipper
breakpoint
limbic
parasitaemia
uncorrected
autocrine
pyrid
organisational
##3t3
##itage
blink
anonymity
translocated
stanford
611
thinner
metatars
##uding
601
##b0
##ulinum
cleaves
jena
calbiochem
##f10
hepc
trifluoro
vil
reed
##ayama
sulfuric
##afting
henceforth
hud
##omo
scalar
##ospin
amf
559
phal
##unders
##ox1
2017a
kyn
finely
intervertebral
wetland
alaska
flexor
electrochem
##thalm
antipar
##haw
kent
presumptive
byst
##alges
stokes
proliferator
embl
microstructures
oceanic
trehalose
tracker
quarters
spectrophotometrically
##noea
569
rs10
substantia
bq
isc
##268
cyp2c
cooh
merge
bronchitis
deformities
##osyn
xf
peptidoglycan
epochs
##209
nonsyn
seaf
ssb
6d
sv40
spectrophotometry
proposition
705
##ynia
##β3
1940
tul
shenzhen
3389
seam
supplier
southwestern
infest
wen
##indo
hnr
creativity
##coal
sore
intricate
μm2
552
547
endorsed
3r
polymerases
##azid
continually
sesquiterp
glyca
microsatellites
demethyl
##tida
focussed
unconscious
##c5
capping
564
δg
bioeth
tok
immunotherap
redistribution
humanized
hunger
##aviruses
imd
589
braun
sectioning
automation
h1299
estrogens
##cotic
innervation
##quist
##atoms
##algia
smad2
##illes
plast
##pha
vascularization
##erum
tcf
transect
stabilizes
conformed
accelerates
aliquoted
irinotecan
gateway
roof
##icked
succession
##vile
##imetic
588
achievements
imipenem
alberta
glac
##haem
phenolics
mozamb
hallucinations
reu
contam
robert
coloration
disproportionately
cyclosporine
pamps
diap
contacting
ici
quorum
b27
##atids
beating
epicardial
p75
574
h11a
nirs
hscr
sterility
##agct
tram
meniscus
dissimilarity
unsatisfactory
sily
dyslex
circums
enteral
arabic
##quest
##oro
semiqu
##ronate
incorrectly
##lemma
weaknesses
csd
envelopes
##estrogen
love
##∑j
sleepiness
glo
cyclization
638
stis
watching
u2os
thereof
kub
informatics
shiga
gz
barrett
##atiles
apic
dermatology
##ulo
deoxyn
##1314
invers
dimeth
pervasive
dream
yn
sess
910
bour
chemoattractant
jane
prf
impressive
phosphorylate
developers
##vale
mω
##itism
hbeag
caudate
pasture
gomez
fellow
563
overproduction
wrky
tsc
rocky
cyclooxygenase
cater
characterise
spline
##itri
forum
rech
t−
mantel
##kine
##h2po4
jersey
b5
##162
subdiv
pcbi
thrombolysis
stigm
eccentric
summation
putting
trape
##mers
##owitz
volatiles
russell
saccade
dilemma
maneuver
amc
ifa
nur
##plots
glue
dps
##p6
806
idc
incisors
7000
certainty
mra
593
gibbs
##g4
luria
nucleophilic
tweets
δs
ftd
polygenic
lud
hcy
morgan
anabolic
edin
thermoc
offices
gastroenterology
habituation
##jk
wheezing
pif
inactivating
cooperate
subacute
psma
##173
engraftment
chimera
fal
magnified
analogy
smell
magnitudes
forecasting
##ympathetic
##instein
photovol
intima
nx
sket
cine
cuv
upregulate
dichro
reynolds
warmed
angeles
##ouns
##othreitol
co1
acquisitions
purkin
##fen
##obr
noxious
synchrotron
##171
t3ss
h3k4me3
mitch
##oya
665
unsafe
santos
tannins
incongruent
cholang
pursuit
bregma
retre
##etom
##welling
superposition
##jet
blends
##227
nyst
##embry
regenerated
spd
fluorophores
pdx
interspersed
raz
inductively
symbiosis
554
p63
##cttg
purkinje
monos
endosymb
ims
wech
redd
aflatoxin
widowed
10−8
analyzes
##tigo
grp78
##domains
stellate
oxidored
∼1
meanings
604
palladium
seventeen
proprietary
00001
##hiv
manch
dma
##ipel
dolph
peter
widths
legume
gdf
draws
chori
authorized
##208
pntd
adventi
haematological
elaborated
reinforce
dithiothreitol
obscure
dunc
##roz
famous
methacrylate
##otypical
ligaments
h2ax
whey
##osylation
handbook
pennsylvania
cd90
655
inflow
persistently
619
biotek
igf2
##orna
iowa
##rolizumab
kbp
nkg2
##atar
sher
cpd
featured
outperform
inclination
##ancerous
##121314
##cf
925
macs
##ghan
inactivate
digitally
prediab
blastp
propolis
##adone
valle
alu
ols
mnps
fe2o3
tcid50
iκbα
tungsten
##ocs
sw480
##inter
##rii
##odextrin
0048
oliv
hcps
eruption
bhlh
mcv
transcriptomics
lightcycler
photoelectron
sgl
60°
chand
postal
diffusivity
institut
refugee
quotient
tpo
737
cryopreserved
phased
0032
smad3
pyrolysis
g12
scanners
##ahan
cyano
eqtl
industrialized
wasp
##278
##c6
nbd
##tious
metabolome
robustly
adaptability
##307
inch
subur
##ivacaine
explores
##operoxidase
##wall
collins
normoxia
779
##onas
579
##lational
lbw
proficiency
##uprofen
##meyer
632
5g
##δδct
biotechnological
puerto
587
photomicrograph
modifier
838
##×104
weekend
subcateg
##electronic
army
reven
##une
enthal
extraordinary
mmp9
kom
h37
retrotranspos
diverged
##atac
ligases
zoster
hydroxylation
summarizing
apoa
vaso
ports
football
##tituted
advocacy
flesh
frog
scaffolding
##oser
heterodimers
normoxic
##ipes
scro
ap2
itt
antagonism
monoxide
##juana
geography
psii
stroop
vitality
appealing
translating
prosocial
herniation
1950s
##k9
quadruplex
##h9
distinguishable
nectar
714
illegal
cdss
csr
##bw
chx
directing
849
ecuador
##ectants
mond
specialised
ssd
180°
histi
menarche
hacat
breeders
pursue
intracerebral
multimorbidity
a6
says
vta
perioste
785
eyelid
##v6
transforms
hyaluron
pembrolizumab
bse
##icine
reductive
bsi
zns
juxt
##vt
eliminates
transporting
nras
marijuana
ator
followup
607
ileal
553
##acao
crustace
bace
##occo
ribbon
##osclerosis
formate
finish
submit
taipei
vldl
##etri
fy
##ciences
ptt
neutralized
fastq
bimodal
lepr
592
875
##ayan
2k
decoc
##oresearch
vegfr2
hescs
consulting
996
azim
##mentioned
##valent
patella
apgar
standardize
hpt
##itative
conclusive
micronutrients
bss
blockage
seroconversion
3×
603
ceftazid
seismic
pga
##ocytoma
barcodes
rass
995
##tus
optically
cler
nozzle
sae
h21
##adip
##ungunya
##ono
healthier
lyme
barcoding
##250
cα
labile
adsorbent
immunoglobulins
bival
e14
capec
thior
monod
##ro2
pharmacotherapy
trains
bioen
drafted
complied
##tek
periodicity
##ativeness
##union
##apical
##lite
quintiles
ibuprofen
miniat
processor
alexander
768
pmtct
qin
##scat
pce
cd36
antioxidative
##flower
anastomotic
alge
syl
##flora
dephosphorylation
concave
ginsen
##athin
questionable
551
##2829
829
altit
consents
parasympathetic
exchanges
una
retired
trypsinized
cobas
##otho
##acetamol
resolutions
prefecture
poles
tee
lignocell
chikungunya
708
hemodynamics
ail
radioimmun
rickettsia
##xc
##aminidase
telec
ebov
##obox
rew
sdm
runx1
systemically
erroneous
niel
677
denitr
imager
vu
hass
apa
vocational
prolongation
##child
ecologically
812
##248
tapered
##306
##opodia
##ulsions
destin
##pora
caliper
lymphoblastic
dated
vand
forel
sali
gonorrh
opacity
##ird
blended
sccm
##shan
wetlands
inject
rutin
##agh
simvastatin
##aphase
calcifications
gpc
benthamiana
thermost
atlanta
llo
phalloidin
everyone
phytoh
myrist
figo
##aryl
586
professions
cko
collaborators
endophytic
maladaptive
##akia
mgmt
miu
lifting
mlv
clarification
chocolate
##amivir
##opeptide
shielding
plantarum
characterizes
essence
##xine
angel
978
##emes
entitled
autofluorescence
dunnett
α4
##anib
phagocyt
rox
disabling
electronically
inspiration
hepcidin
##lock
prostatectomy
discriminative
dbd
f5
hnf
a20
∑k
tav
herpesvirus
justify
ura3
passively
deoxych
##inex
606
pscs
##qq
apis
weaned
atrophic
agronomic
pb1
nsaid
unweighted
fastest
trophoblast
0031
sporulation
coexisting
cuo
methadone
gta
mpfc
rheological
ypd
cardiorespiratory
##alact
##itations
tpr
insulator
endodontic
ceftazidime
effer
abovementioned
ipr
##adh
interd
##atula
##937
mito
hyperthyroidism
burlingame
paracetamol
##length
##iculus
##224
marketed
neurobiological
burkholderia
bav
##uyen
rnfl
##2o5
##tetrazolium
711
matth
602
folf
karls
guangxi
##jm
##agu
radiative
##activeness
kod
##etron
exh
##noon
hesc
sutured
announcement
##osecond
ccdc
pks
##rier
tils
sirs
##omycosis
##acetyl
yellowish
summaries
##ennium
stride
informing
cry1
dus
premise
incarcer
anticoagulants
927
##rotech
tropism
anatomically
572
dislocations
contaminant
bgl
##ulata
berk
croc
myotubes
toil
cryopreservation
##cement
phb
dummy
rapa
paralogs
hco3
−x
topologies
controllable
listing
##tb
dlpfc
concealment
madagascar
##amethoxazole
2j
protozoan
afternoon
hers
prm
accommodation
misleading
715
##ohe
##901
ejac
##ifferentiation
mycorrhiz
853
##actable
neurosurgery
jian
cardinal
##ogenin
hyperalges
##illiant
lemma
cirrhotic
##atga
fpkm
ascertainment
##glucose
amphibians
cerc
##161
gom
##aminophen
926
sumoylation
networking
extracorporeal
commentary
glun
moon
cartridge
##ophosphory
trapez
symbolic
828
musculus
unresectable
mica
dpc
s3a
morphogenetic
##aike
dispensing
##oencephal
mesang
##238
##timulatory
transgenes
luad
topoisomerase
ltbi
typhoid
norovirus
ler
psychiatrist
blotted
tyl
iteratively
cyanobacterial
##ocol
rubella
fertilizers
schwartz
glabrata
glomerulonephritis
##gtcc
rockville
##ucine
##osulf
glycation
ponds
##uction
exciton
distancing
##705
husbandry
##ien
colours
aneuploidy
nguyen
u251
fillers
##ifers
phosphodies
notified
milder
##arn
degran
pseudogenes
microstructural
sln
cecum
dba
##zees
997
crosslinked
amid
##inositi
566
acetaminophen
ignore
chimpanzees
tetras
nah2po4
joseph
pgl3
scintigraphy
reporters
panic
tep
mainst
christian
599
capecitabine
765
lips
mitophagy
fumar
sprayed
##arate
##ematically
##owska
dang
pcmv
##ospheres
sealing
##alli
neurovascular
authentication
influenzae
blu
impede
imagine
trypanosoma
dyne
zig
0050
lectins
stayed
assemblage
725
cryostat
preinc
decou
forestry
meristem
leban
##221
levo
enforcement
fluorine
murphy
proactive
##hole
investigates
subcloned
fees
##247
immigration
9th
##me2
maker
##tist
desal
neurofibrom
saponins
pins
##adeh
discriminatory
patel
granulomas
kilograms
##oxal
##358
conceiv
sgs
polyt
reapp
12th
categorize
coronaviruses
##bn
comet
vlp
fractured
irradiance
adjustable
involuntary
shrub
anchorage
avidin
ante
activations
cenp
c1q
##oluminescence
afb1
hg19
tunneling
corr
nish
≥65
##avicular
amoeb
808
##arinic
virginia
attractiveness
whisk
scab
brilliant
##venous
epitheli
regenerate
cachex
minip
charcoal
backscat
taxonom
anaphylaxis
mere
pdcs
snare
hunt
##antit
##agca
melbourne
k−1
664
abut
##agac
##otti
prpsc
jurisdictional
##v3
ultrafil
trichrome
ferrous
wonder
rnaseq
deciding
edc
rectangle
knife
ddd
torres
sacral
microsystems
asph
merit
##fg
subsample
leaching
cooked
tenth
graphic
fingerprints
legiti
adjuvants
unif
##ublin
##adin
##v4
coerc
underpin
lgr
muc1
acinar
##apillary
posttraumatic
##oglu
interviewees
fcm
sevo
cd80
rust
taurine
gaas
keap1
##405
9a
pax6
arts
folk
desiccation
neat
##407
etched
erβ
retains
microliters
duncan
##amoe
ultrastructural
facultative
0046
637
amik
tabulated
orthotopic
##echan
angiographic
manifold
alkaloid
intensified
edinburgh
##eon
ptfe
cdk1
logan
compaction
seafood
hepatotoxicity
##in1
brl
syntheses
handedness
ebm
##sem
##irosis
motors
lecture
spouse
epc
rs4
rotator
tfe
##rance
phylogenies
arabinose
583
spectrophotometric
##brook
hughes
sift
porphyrin
##elected
lump
xer
satisfies
reactors
fra
##nier
pani
drow
##o6
unclass
welch
h8b
registr
##ought
decel
##ecia
boosting
aar
messaging
##aming
descriptor
actuator
##roton
ipil
appreciation
pym
ube
0047
photovolta
rebound
##tilb
agcl
kah
breaths
cryos
boltz
biodegradation
##crystalline
##aneurys
evacuation
trol
nights
posted
##259
##aaaa
posteriorly
evaporator
h6a
##imidazole
informant
##aminetetra
glycated
bleomycin
718
acsf
splenomegaly
atorvastatin
##odopa
introgression
##arz
antennas
tibetan
church
##ectasis
hypop
##orphism
gep
vacuolar
2010a
prolapse
chcl3
steat
chondrogenic
perpet
png
x3
commands
leptospirosis
##wd
597
shun
akt1
##asth
lactone
darwin
liber
##lm
perimeter
leaflets
658
##jima
nomogram
##omallei
healed
reluct
vntr
ere
648
kamp
##141
##nstein
allop
ultracentrifugation
huc
##anguine
warb
##ourished
diabetics
dix
freezer
digestibility
armed
flagellar
##prednis
paroxys
ultrathin
c60
pbp
hols
bristol
mozambique
cachexia
##acle
##umenting
crus
northwestern
chinensis
bradyc
biochar
depolymer
narrower
triazole
##bearing
rsa
plp
derives
##attg
charging
##thrombotic
tfr
synovi
motivations
827
defibrill
glucone
hell
lanth
intubated
discovering
4t1
conspicuous
basophil
581
convincing
defec
avr
qualification
reich
doublet
drew
daniel
congru
nordic
pathol
authorization
598
eighth
##tiana
inquiry
##rf
collects
cyste
596
##inear
##265
thirdly
−15
akin
multilocus
azimuth
huntington
dapt
dissect
##romatic
indentation
peprotech
poorest
ipilimumab
coactiv
facile
polych
slug
regularization
guaranteed
##alog
ampa
##z1
##ardo
##286
unspecific
bmj
aqp4
subclasses
6h2o
##abilis
##yridine
disciplinary
geneva
innerv
ihd
mage
dneasy
hein
4g
thresholding
archived
logit
represses
j2
syncope
##essional
prematurity
pseudomallei
hindlim
seman
euph
lamellar
igt
investments
##emi
nonm
hymen
amikacin
bedford
unequiv
volcanic
mvs
ferromagnetic
posttranslational
ppc
tis
millennium
aerosols
tendencies
fellowship
rls
osteoporotic
divalent
stamp
mace
##ethanolamine
##agens
ht29
hypochlor
ore
imaginary
ptms
##ronic
##alp
##chs
adoptive
napus
unity
642
mathematically
636
cellulase
stark
##408
methylprednis
microcephaly
neurol
decont
asynchronous
hydrolytic
##oder
##gga
psg
dsred
dystrophin
snapshot
##opically
obstetr
mss
compulsory
##ardiac
dcf
smr
repressive
mph
[...]
